{
  "version": "1.0",
  "truncation": null,
  "padding": null,
  "added_tokens": [
    {
      "id": 0,
      "content": "<s>",
      "single_word": false,
      "lstrip": false,
      "rstrip": false,
      "normalized": false,
      "special": true
    },
    {
      "id": 1,
      "content": "<pad>",
      "single_word": false,
      "lstrip": false,
      "rstrip": false,
      "normalized": false,
      "special": true
    },
    {
      "id": 2,
      "content": "</s>",
      "single_word": false,
      "lstrip": false,
      "rstrip": false,
      "normalized": false,
      "special": true
    },
    {
      "id": 3,
      "content": "<unk>",
      "single_word": false,
      "lstrip": false,
      "rstrip": false,
      "normalized": false,
      "special": true
    },
    {
      "id": 4,
      "content": "<sep>",
      "single_word": false,
      "lstrip": false,
      "rstrip": false,
      "normalized": false,
      "special": true
    }
  ],
  "normalizer": null,
  "pre_tokenizer": {
    "type": "ByteLevel",
    "add_prefix_space": false,
    "trim_offsets": true,
    "use_regex": true
  },
  "post_processor": {
    "type": "ByteLevel",
    "add_prefix_space": true,
    "trim_offsets": false,
    "use_regex": true
  },
  "decoder": {
    "type": "ByteLevel",
    "add_prefix_space": true,
    "trim_offsets": true,
    "use_regex": true
  },
  "model": {
    "type": "BPE",
    "dropout": null,
    "unk_token": null,
    "continuing_subword_prefix": null,
    "end_of_word_suffix": null,
    "fuse_unk": false,
    "byte_fallback": false,
    "ignore_merges": false,
    "vocab": {
      "<s>": 0,
      "<pad>": 1,
      "</s>": 2,
      "<unk>": 3,
      "<sep>": 4,
      "!": 5,
      "\"": 6,
      "#": 7,
      "$": 8,
      "%": 9,
      "&": 10,
      "'": 11,
      "(": 12,
      ")": 13,
      "*": 14,
      "+": 15,
      ",": 16,
      "-": 17,
      ".": 18,
      "/": 19,
      "0": 20,
      "1": 21,
      "2": 22,
      "3": 23,
      "4": 24,
      "5": 25,
      "6": 26,
      "7": 27,
      "8": 28,
      "9": 29,
      ":": 30,
      ";": 31,
      "<": 32,
      "=": 33,
      ">": 34,
      "?": 35,
      "@": 36,
      "A": 37,
      "B": 38,
      "C": 39,
      "D": 40,
      "E": 41,
      "F": 42,
      "G": 43,
      "H": 44,
      "I": 45,
      "J": 46,
      "K": 47,
      "L": 48,
      "M": 49,
      "N": 50,
      "O": 51,
      "P": 52,
      "Q": 53,
      "R": 54,
      "S": 55,
      "T": 56,
      "U": 57,
      "V": 58,
      "W": 59,
      "X": 60,
      "Y": 61,
      "Z": 62,
      "[": 63,
      "\\": 64,
      "]": 65,
      "^": 66,
      "_": 67,
      "`": 68,
      "a": 69,
      "b": 70,
      "c": 71,
      "d": 72,
      "e": 73,
      "f": 74,
      "g": 75,
      "h": 76,
      "i": 77,
      "j": 78,
      "k": 79,
      "l": 80,
      "m": 81,
      "n": 82,
      "o": 83,
      "p": 84,
      "q": 85,
      "r": 86,
      "s": 87,
      "t": 88,
      "u": 89,
      "v": 90,
      "w": 91,
      "x": 92,
      "y": 93,
      "z": 94,
      "{": 95,
      "|": 96,
      "}": 97,
      "~": 98,
      "¡": 99,
      "¢": 100,
      "£": 101,
      "¤": 102,
      "¥": 103,
      "¦": 104,
      "§": 105,
      "¨": 106,
      "©": 107,
      "ª": 108,
      "«": 109,
      "¬": 110,
      "®": 111,
      "¯": 112,
      "°": 113,
      "±": 114,
      "²": 115,
      "³": 116,
      "´": 117,
      "µ": 118,
      "¶": 119,
      "·": 120,
      "¸": 121,
      "¹": 122,
      "º": 123,
      "»": 124,
      "¼": 125,
      "½": 126,
      "¾": 127,
      "¿": 128,
      "À": 129,
      "Á": 130,
      "Â": 131,
      "Ã": 132,
      "Ä": 133,
      "Å": 134,
      "Æ": 135,
      "Ç": 136,
      "È": 137,
      "É": 138,
      "Ê": 139,
      "Ë": 140,
      "Ì": 141,
      "Í": 142,
      "Î": 143,
      "Ï": 144,
      "Ð": 145,
      "Ñ": 146,
      "Ò": 147,
      "Ó": 148,
      "Ô": 149,
      "Õ": 150,
      "Ö": 151,
      "×": 152,
      "Ø": 153,
      "Ù": 154,
      "Ú": 155,
      "Û": 156,
      "Ü": 157,
      "Ý": 158,
      "Þ": 159,
      "ß": 160,
      "à": 161,
      "á": 162,
      "â": 163,
      "ã": 164,
      "ä": 165,
      "å": 166,
      "æ": 167,
      "ç": 168,
      "è": 169,
      "é": 170,
      "ê": 171,
      "ë": 172,
      "ì": 173,
      "í": 174,
      "î": 175,
      "ï": 176,
      "ð": 177,
      "ñ": 178,
      "ò": 179,
      "ó": 180,
      "ô": 181,
      "õ": 182,
      "ö": 183,
      "÷": 184,
      "ø": 185,
      "ù": 186,
      "ú": 187,
      "û": 188,
      "ü": 189,
      "ý": 190,
      "þ": 191,
      "ÿ": 192,
      "Ā": 193,
      "ā": 194,
      "Ă": 195,
      "ă": 196,
      "Ą": 197,
      "ą": 198,
      "Ć": 199,
      "ć": 200,
      "Ĉ": 201,
      "ĉ": 202,
      "Ċ": 203,
      "ċ": 204,
      "Č": 205,
      "č": 206,
      "Ď": 207,
      "ď": 208,
      "Đ": 209,
      "đ": 210,
      "Ē": 211,
      "ē": 212,
      "Ĕ": 213,
      "ĕ": 214,
      "Ė": 215,
      "ė": 216,
      "Ę": 217,
      "ę": 218,
      "Ě": 219,
      "ě": 220,
      "Ĝ": 221,
      "ĝ": 222,
      "Ğ": 223,
      "ğ": 224,
      "Ġ": 225,
      "ġ": 226,
      "Ģ": 227,
      "ģ": 228,
      "Ĥ": 229,
      "ĥ": 230,
      "Ħ": 231,
      "ħ": 232,
      "Ĩ": 233,
      "ĩ": 234,
      "Ī": 235,
      "ī": 236,
      "Ĭ": 237,
      "ĭ": 238,
      "Į": 239,
      "į": 240,
      "İ": 241,
      "ı": 242,
      "Ĳ": 243,
      "ĳ": 244,
      "Ĵ": 245,
      "ĵ": 246,
      "Ķ": 247,
      "ķ": 248,
      "ĸ": 249,
      "Ĺ": 250,
      "ĺ": 251,
      "Ļ": 252,
      "ļ": 253,
      "Ľ": 254,
      "ľ": 255,
      "Ŀ": 256,
      "ŀ": 257,
      "Ł": 258,
      "ł": 259,
      "Ń": 260,
      "ĠĠ": 261,
      "ĠĠĠĠ": 262,
      "čĊ": 263,
      "ĠĠĠ": 264,
      "ĠĠĠĠĠĠĠ": 265,
      "in": 266,
      "Ġt": 267,
      "re": 268,
      "se": 269,
      "on": 270,
      "at": 271,
      "ĠĠĠĠĠĠĠĠ": 272,
      "er": 273,
      "Ġa": 274,
      "or": 275,
      "st": 276,
      "he": 277,
      "en": 278,
      "Ġi": 279,
      "Ġf": 280,
      "de": 281,
      "le": 282,
      "ar": 283,
      "Ġc": 284,
      "al": 285,
      "ĠĠĠĠĠĠĠĠĠĠĠ": 286,
      "me": 287,
      "Ġthe": 288,
      "Ġ=": 289,
      "ion": 290,
      "Ġre": 291,
      "Ġo": 292,
      "\"\"": 293,
      "ur": 294,
      "Ġp": 295,
      "ct": 296,
      "Ġin": 297,
      "Ġn": 298,
      "it": 299,
      "an": 300,
      "ce": 301,
      "Ġs": 302,
      "--": 303,
      "Ġse": 304,
      "lf": 305,
      "ro": 306,
      "ing": 307,
      "Ġb": 308,
      "et": 309,
      "ame": 310,
      "Ġd": 311,
      "Ġe": 312,
      "Ġw": 313,
      "ut": 314,
      "Ġto": 315,
      "urn": 316,
      "ue": 317,
      "ent": 318,
      "lo": 319,
      "ed": 320,
      "Ġif": 321,
      "li": 322,
      "pe": 323,
      "):": 324,
      "ss": 325,
      "Ġ:": 326,
      "Ġm": 327,
      "Ġof": 328,
      "un": 329,
      "Ġ'": 330,
      "\"\"\"": 331,
      "Ġself": 332,
      "fi": 333,
      "ĠĠĠĠĠĠĠĠĠĠĠĠĠĠĠĠ": 334,
      "ra": 335,
      "ot": 336,
      "Ġfor": 337,
      "turn": 338,
      "es": 339,
      "Ġan": 340,
      "am": 341,
      "Ġis": 342,
      "Ġ\"\"\"": 343,
      "def": 344,
      "id": 345,
      "ĠĠĠĠĠĠĠĠĠĠĠĠĠĠĠ": 346,
      "ul": 347,
      "Ġst": 348,
      "Ġv": 349,
      "ate": 350,
      "Ġreturn": 351,
      "ad": 352,
      "pt": 353,
      "ĠT": 354,
      "co": 355,
      "il": 356,
      "um": 357,
      "ch": 358,
      "Ġ(": 359,
      "is": 360,
      "one": 361,
      "ata": 362,
      "la": 363,
      "ter": 364,
      "ri": 365,
      "ype": 366,
      "ck": 367,
      "Ġ#": 368,
      "----": 369,
      "ag": 370,
      "Ġg": 371,
      "par": 372,
      "ation": 373,
      "Ġco": 374,
      "self": 375,
      "alue": 376,
      "Ġand": 377,
      "ke": 378,
      "Ġcon": 379,
      "Ġth": 380,
      "name": 381,
      "th": 382,
      "None": 383,
      "ction": 384,
      "el": 385,
      "up": 386,
      "()": 387,
      "as": 388,
      "ex": 389,
      "di": 390,
      "Ġnot": 391,
      "mp": 392,
      "``": 393,
      "ult": 394,
      "ath": 395,
      "Ġbe": 396,
      "Ġex": 397,
      "ĠA": 398,
      "Ġfi": 399,
      "ect": 400,
      "Ġh": 401,
      "Ġ\"": 402,
      "gs": 403,
      "param": 404,
      "._": 405,
      "ble": 406,
      "Ġor": 407,
      "type": 408,
      "list": 409,
      "ver": 410,
      "ol": 411,
      "use": 412,
      "ith": 413,
      "ve": 414,
      "get": 415,
      "ĠI": 416,
      "key": 417,
      "ror": 418,
      "',": 419,
      "ĠR": 420,
      "Ġl": 421,
      "bj": 422,
      "ode": 423,
      "ap": 424,
      "Ġdi": 425,
      "age": 426,
      "con": 427,
      "Ġstr": 428,
      "rom": 429,
      "ption": 430,
      "))": 431,
      "ime": 432,
      "orm": 433,
      "Ġde": 434,
      "('": 435,
      "and": 436,
      "end": 437,
      ">>": 438,
      "od": 439,
      "int": 440,
      "Ġme": 441,
      "qu": 442,
      "able": 443,
      "ment": 444,
      "ĠNone": 445,
      "nt": 446,
      "ly": 447,
      "Ġres": 448,
      "ort": 449,
      "to": 450,
      "Ġvalue": 451,
      "['": 452,
      "Ġdata": 453,
      "Ġlo": 454,
      "Ġwith": 455,
      "iz": 456,
      "']": 457,
      "ig": 458,
      "ĠS": 459,
      "ĠThe": 460,
      "te": 461,
      "Ġas": 462,
      "ise": 463,
      "ext": 464,
      "Ġname": 465,
      "Ġuse": 466,
      "Ġal": 467,
      "res": 468,
      "str": 469,
      "Ġ1": 470,
      "Ġpro": 471,
      "eturn": 472,
      "Ġfile": 473,
      "Ġfrom": 474,
      "Ġ-": 475,
      "ĠC": 476,
      "Ġar": 477,
      "ĠP": 478,
      "ers": 479,
      "path": 480,
      "ĠĠĠĠĠĠĠĠĠĠĠĠĠĠĠĠĠĠĠ": 481,
      "vi": 482,
      "ance": 483,
      "form": 484,
      "bject": 485,
      "Ġ_": 486,
      "Ġ[": 487,
      "us": 488,
      "Ġlist": 489,
      "set": 490,
      "Ġ*": 491,
      "')": 492,
      "Ġr": 493,
      "Ġpar": 494,
      "Ġ+": 495,
      "que": 496,
      "file": 497,
      "put": 498,
      "Ġ{": 499,
      "rror": 500,
      "ci": 501,
      "Error": 502,
      "ase": 503,
      "ord": 504,
      "rue": 505,
      "ĠĠĠĠĠ": 506,
      "ta": 507,
      "ist": 508,
      "Ġon": 509,
      "ĠF": 510,
      "po": 511,
      "ma": 512,
      "':": 513,
      "args": 514,
      "Ġ``": 515,
      "Ġ0": 516,
      "ic": 517,
      "ry": 518,
      "ub": 519,
      "ine": 520,
      "Ġ`": 521,
      "Ġthat": 522,
      "che": 523,
      "Ġel": 524,
      "ew": 525,
      "data": 526,
      "per": 527,
      "red": 528,
      "Ġelse": 529,
      "stance": 530,
      "ault": 531,
      "ack": 532,
      "iv": 533,
      "Ġra": 534,
      "..": 535,
      "(\"": 536,
      "all": 537,
      "Ġ%": 538,
      "ow": 539,
      "fig": 540,
      "Ġdef": 541,
      "ite": 542,
      "out": 543,
      "Ġkey": 544,
      "eturns": 545,
      "ĠD": 546,
      "Ġthis": 547,
      "ill": 548,
      "ge": 549,
      "our": 550,
      "ser": 551,
      "Ġit": 552,
      "ray": 553,
      "amp": 554,
      "quest": 555,
      "Ġ==": 556,
      "att": 557,
      "ize": 558,
      "eld": 559,
      "pro": 560,
      "alse": 561,
      "ameter": 562,
      "Ġobject": 563,
      "Ġby": 564,
      "ure": 565,
      "fo": 566,
      "art": 567,
      "app": 568,
      "py": 569,
      "lass": 570,
      "Ġch": 571,
      "rent": 572,
      "Ġraise": 573,
      "im": 574,
      "Ġare": 575,
      "ĠE": 576,
      "unt": 577,
      "Ġma": 578,
      "Ġset": 579,
      "value": 580,
      "unction": 581,
      "ĠIf": 582,
      "Ġ>>": 583,
      "ĠN": 584,
      "),": 585,
      "ource": 586,
      "ran": 587,
      "ms": 588,
      "Ġ>>>": 589,
      "dex": 590,
      "Ġwill": 591,
      "Ġstring": 592,
      "pa": 593,
      "Ġy": 594,
      "Ġ----": 595,
      "ĠReturns": 596,
      "hi": 597,
      "ated": 598,
      "ded": 599,
      "\",": 600,
      "und": 601,
      "Ġnum": 602,
      "cess": 603,
      "ary": 604,
      "Ġout": 605,
      "dd": 606,
      "ht": 607,
      "pon": 608,
      "Ġpo": 609,
      "val": 610,
      "ho": 611,
      "ff": 612,
      "ust": 613,
      "kw": 614,
      "ind": 615,
      "Ġ2": 616,
      "format": 617,
      "Ġget": 618,
      "ument": 619,
      "mm": 620,
      "Ġdo": 621,
      "ber": 622,
      "ition": 623,
      "pre": 624,
      "Ġall": 625,
      "00": 626,
      "atch": 627,
      "ample": 628,
      "sc": 629,
      "Ġcont": 630,
      "return": 631,
      "Ġen": 632,
      "thod": 633,
      "odel": 634,
      "Ġlog": 635,
      "Ġtime": 636,
      "mo": 637,
      "ĠĠĠĠĠĠĠĠĠĠĠĠĠĠĠĠĠĠĠĠĠĠĠĠĠĠĠĠĠĠĠĠ": 638,
      "error": 639,
      "ive": 640,
      "ity": 641,
      "url": 642,
      "ory": 643,
      "Ġspe": 644,
      "ces": 645,
      "kwargs": 646,
      "ĠM": 647,
      "Ġpath": 648,
      "iven": 649,
      "ha": 650,
      "Ġresult": 651,
      "Ġfunction": 652,
      "Ġnew": 653,
      "low": 654,
      "Ġpa": 655,
      "cl": 656,
      "code": 657,
      "ug": 658,
      "Ġtype": 659,
      "ameters": 660,
      "Ġcol": 661,
      "ĠTrue": 662,
      "pp": 663,
      "Ġlen": 664,
      "Ġexce": 665,
      "Ġx": 666,
      "Ġun": 667,
      "jo": 668,
      "\")": 669,
      "Ġro": 670,
      "ute": 671,
      "Ġpre": 672,
      "rib": 673,
      "])": 674,
      "ĠO": 675,
      "bo": 676,
      "ssion": 677,
      "ĠU": 678,
      "Ġwe": 679,
      "ponse": 680,
      "Ġgiven": 681,
      "der": 682,
      "ule": 683,
      "ens": 684,
      "lement": 685,
      "his": 686,
      "Ġhe": 687,
      "om": 688,
      "len": 689,
      "ates": 690,
      "read": 691,
      "port": 692,
      "Ġwhi": 693,
      "Ġoption": 694,
      "Ġwhe": 695,
      "Ġint": 696,
      ":`": 697,
      "date": 698,
      "],": 699,
      "tain": 700,
      "==": 701,
      "ĠV": 702,
      "ator": 703,
      "ign": 704,
      "ip": 705,
      "vent": 706,
      "Ġspeci": 707,
      "''": 708,
      "Ġdefault": 709,
      "ĠL": 710,
      "ssage": 711,
      ").": 712,
      "ork": 713,
      "add": 714,
      "ari": 715,
      "rect": 716,
      "Ġmethod": 717,
      "roup": 718,
      "Ġrequest": 719,
      "time": 720,
      "col": 721,
      "ger": 722,
      "reate": 723,
      "cation": 724,
      "act": 725,
      "Ġcomp": 726,
      "class": 727,
      "ther": 728,
      "rans": 729,
      "Ġbo": 730,
      "pl": 731,
      "dict": 732,
      "ery": 733,
      "ave": 734,
      "ĠAr": 735,
      "gument": 736,
      "Ġla": 737,
      "ĠThis": 738,
      "Ġuser": 739,
      "Ġdict": 740,
      "ĠG": 741,
      "ile": 742,
      "heck": 743,
      "op": 744,
      "ĠĠĠĠĠĠĠĠĠĠĠĠĠĠĠĠĠĠĠĠĠĠĠ": 745,
      "urrent": 746,
      "Ġcan": 747,
      "instance": 748,
      "append": 749,
      "Re": 750,
      "ca": 751,
      "Ġid": 752,
      "rint": 753,
      "ĠW": 754,
      "ild": 755,
      "lock": 756,
      "Ġtry": 757,
      "Ġ..": 758,
      "ant": 759,
      "vice": 760,
      "__": 761,
      "ener": 762,
      "uld": 763,
      "ĠFalse": 764,
      "ore": 765,
      "Ġ**": 766,
      "fe": 767,
      "dir": 768,
      "text": 769,
      "ask": 770,
      "ok": 771,
      "rap": 772,
      "Ġup": 773,
      "sed": 774,
      "Ġadd": 775,
      "ĠĠĠĠĠĠĠĠĠ": 776,
      "ren": 777,
      "Ġconfig": 778,
      "loat": 779,
      "Ġexcept": 780,
      "ial": 781,
      "Ġ--------": 782,
      "Ġat": 783,
      "ies": 784,
      "load": 785,
      "log": 786,
      "Ġhas": 787,
      "ne": 788,
      "Ġvalues": 789,
      "ĠB": 790,
      "Ġform": 791,
      "Ġfil": 792,
      "lif": 793,
      "ang": 794,
      "Ġimp": 795,
      "Ġ<": 796,
      "ir": 797,
      "Ġspecifi": 798,
      "In": 799,
      "ys": 800,
      "umn": 801,
      "Ġqu": 802,
      "bel": 803,
      "ččĊ": 804,
      "lient": 805,
      "mmand": 806,
      "Ġsub": 807,
      "Ġwhich": 808,
      "pla": 809,
      "Ġnp": 810,
      "ĠPar": 811,
      "True": 812,
      "info": 813,
      "\":": 814,
      "ĠĠĠĠĠĠ": 815,
      "attr": 816,
      "Ġle": 817,
      "Ġused": 818,
      "='": 819,
      "ĠEx": 820,
      "Ġelif": 821,
      "Ġnode": 822,
      "array": 823,
      "Ġ{}": 824,
      "ps": 825,
      "Ġ'''": 826,
      "min": 827,
      "Ġcontain": 828,
      "Ġte": 829,
      "js": 830,
      "ĠArgs": 831,
      "'.": 832,
      "Con": 833,
      "ach": 834,
      "Ġval": 835,
      "ste": 836,
      "Ġinstance": 837,
      "Ġnumber": 838,
      "ifi": 839,
      "Ġoutput": 840,
      "cal": 841,
      "Ġarray": 842,
      "os": 843,
      "Ġ)": 844,
      "arget": 845,
      "Ġne": 846,
      "ange": 847,
      "tra": 848,
      "word": 849,
      "Ġfield": 850,
      "Ġk": 851,
      "Ġso": 852,
      "ec": 853,
      "'s": 854,
      "size": 855,
      "config": 856,
      "Ġos": 857,
      "hape": 858,
      "ĠH": 859,
      "ard": 860,
      "odule": 861,
      "string": 862,
      "rite": 863,
      "json": 864,
      "num": 865,
      "uple": 866,
      "Ġisinstance": 867,
      "False": 868,
      "Ġser": 869,
      "ĠParameters": 870,
      "Ġac": 871,
      "ail": 872,
      ".\"\"\"": 873,
      "Ġline": 874,
      "Ġerror": 875,
      "rame": 876,
      "if": 877,
      "Ġ|": 878,
      "Ġcall": 879,
      "ress": 880,
      "tem": 881,
      "Ġ3": 882,
      "do": 883,
      "gth": 884,
      "atus": 885,
      "line": 886,
      "ON": 887,
      "unc": 888,
      "Ġret": 889,
      "own": 890,
      "ken": 891,
      "Ġcurrent": 892,
      "count": 893,
      "Ġli": 894,
      "pi": 895,
      "ĠĠĠĠĠĠĠĠĠĠĠĠĠĠĠĠĠĠĠĠĠĠĠĠ": 896,
      "Ġ----------": 897,
      "join": 898,
      "Ġresponse": 899,
      "nd": 900,
      "start": 901,
      "base": 902,
      "uct": 903,
      "Ġmodel": 904,
      "back": 905,
      "tt": 906,
      "index": 907,
      "Ġinput": 908,
      "vert": 909,
      "():": 910,
      "Ġapp": 911,
      "Ġone": 912,
      "ception": 913,
      "sh": 914,
      "plit": 915,
      "mit": 916,
      "Ġprint": 917,
      "ight": 918,
      "Ġargument": 919,
      "ĠIn": 920,
      "hould": 921,
      "Ġstart": 922,
      "Ġindex": 923,
      "ll": 924,
      "Ġno": 925,
      "attrib": 926,
      "cord": 927,
      "vers": 928,
      "ER": 929,
      "ence": 930,
      "Ġ>": 931,
      "ations": 932,
      "Ġim": 933,
      "rst": 934,
      "etw": 935,
      "so": 936,
      "ree": 937,
      "sent": 938,
      "Ġoptional": 939,
      "ersion": 940,
      "not": 941,
      "fix": 942,
      "[\"": 943,
      "Ġcheck": 944,
      "ude": 945,
      "mb": 946,
      "ader": 947,
      "tern": 948,
      "uth": 949,
      "arch": 950,
      "ab": 951,
      "comp": 952,
      "Ġ[]": 953,
      "ound": 954,
      "Ġ@": 955,
      "ariable": 956,
      "Ġreg": 957,
      "Ġmessage": 958,
      "obj": 959,
      "og": 960,
      "ings": 961,
      "Ġcode": 962,
      "Ġeach": 963,
      "node": 964,
      "ĠValue": 965,
      ".__": 966,
      "qui": 967,
      "Ġper": 968,
      "Ġspecified": 969,
      "ml": 970,
      "Ġshould": 971,
      "Ġimport": 972,
      "lic": 973,
      "led": 974,
      "scri": 975,
      "vel": 976,
      "Ġbase": 977,
      "::": 978,
      "Ex": 979,
      "Ġfloat": 980,
      "Ġmax": 981,
      "cs": 982,
      "Ġonly": 983,
      "valid": 984,
      "Ġ\\": 985,
      "lot": 986,
      "point": 987,
      "Ġend": 988,
      "ink": 989,
      "Ġus": 990,
      "ding": 991,
      "ef": 992,
      "Ġent": 993,
      "Ġinto": 994,
      "Ġcal": 995,
      "user": 996,
      "St": 997,
      "Ġsu": 998,
      "Ġexist": 999,
      "ull": 1000,
      "ay": 1001,
      "ds": 1002,
      "ctionary": 1003,
      "mpl": 1004,
      "Ġ+=": 1005,
      "Ġany": 1006,
      "cur": 1007,
      "ses": 1008,
      "\".": 1009,
      "Ġversion": 1010,
      "ĉĉ": 1011,
      "Ġdirect": 1012,
      "Ġhave": 1013,
      "raph": 1014,
      "pace": 1015,
      "by": 1016,
      "bug": 1017,
      "Ġvalid": 1018,
      "Ġstate": 1019,
      "default": 1020,
      "Ġmust": 1021,
      "Get": 1022,
      "Ġtrans": 1023,
      "ĠValueError": 1024,
      "---": 1025,
      "ical": 1026,
      "Ġother": 1027,
      "\"]": 1028,
      "ak": 1029,
      "ost": 1030,
      "Ġpass": 1031,
      "ual": 1032,
      "Ġbu": 1033,
      "move": 1034,
      "ep": 1035,
      "lete": 1036,
      "lect": 1037,
      "IN": 1038,
      "Ġz": 1039,
      "fa": 1040,
      "ream": 1041,
      "Ġmat": 1042,
      "Ġdis": 1043,
      "Ġtext": 1044,
      "Ġclass": 1045,
      "Ġevent": 1046,
      "Ġrun": 1047,
      "Ġ/": 1048,
      "ages": 1049,
      "ĠRe": 1050,
      "ines": 1051,
      "sert": 1052,
      "ST": 1053,
      "field": 1054,
      "ac": 1055,
      "thon": 1056,
      "Ġcolumn": 1057,
      "Ġformat": 1058,
      "Ġargs": 1059,
      "Ġinter": 1060,
      "yn": 1061,
      "ote": 1062,
      "ron": 1063,
      "Ġwhen": 1064,
      "nection": 1065,
      "rtype": 1066,
      "pect": 1067,
      "ature": 1068,
      "ning": 1069,
      "pos": 1070,
      "Ġurl": 1071,
      "ou": 1072,
      "Return": 1073,
      "ject": 1074,
      "([": 1075,
      "Ġelement": 1076,
      "Ġbool": 1077,
      "nel": 1078,
      "pen": 1079,
      "AT": 1080,
      "let": 1081,
      "max": 1082,
      "bu": 1083,
      "iter": 1084,
      "its": 1085,
      "request": 1086,
      "Ġnames": 1087,
      "Ġcommand": 1088,
      "sub": 1089,
      "group": 1090,
      "Ġca": 1091,
      "option": 1092,
      "Ġquery": 1093,
      "pert": 1094,
      "model": 1095,
      "**": 1096,
      "ft": 1097,
      "Ġmatch": 1098,
      "].": 1099,
      "ler": 1100,
      "Ġread": 1101,
      "from": 1102,
      "ension": 1103,
      "Ġ-------": 1104,
      "version": 1105,
      "feren": 1106,
      "for": 1107,
      "Ġfiles": 1108,
      "Ġtuple": 1109,
      "reg": 1110,
      "split": 1111,
      "--------": 1112,
      "Ġover": 1113,
      "ename": 1114,
      "Ġsup": 1115,
      "Ġpart": 1116,
      "Ġdictionary": 1117,
      "place": 1118,
      "Ġattrib": 1119,
      "Ġfirst": 1120,
      "Ġparam": 1121,
      "'t": 1122,
      "result": 1123,
      "Ġpy": 1124,
      "====": 1125,
      "inal": 1126,
      "md": 1127,
      "map": 1128,
      "wa": 1129,
      "uration": 1130,
      "state": 1131,
      "Ġcl": 1132,
      "object": 1133,
      "Ġtarget": 1134,
      "row": 1135,
      "Ġ...": 1136,
      "alt": 1137,
      "Ġsource": 1138,
      "RE": 1139,
      "{}": 1140,
      "Ġ!": 1141,
      "Ġitem": 1142,
      "Ġgener": 1143,
      "ax": 1144,
      "ries": 1145,
      "Ġcor": 1146,
      "Ġkwargs": 1147,
      "`.": 1148,
      "ils": 1149,
      "ors": 1150,
      "adata": 1151,
      "names": 1152,
      "ments": 1153,
      "ield": 1154,
      "Ġhand": 1155,
      "cket": 1156,
      "ched": 1157,
      "Ġgroup": 1158,
      "amples": 1159,
      "cont": 1160,
      "ents": 1161,
      "Ġ!=": 1162,
      "tes": 1163,
      "Ġj": 1164,
      "params": 1165,
      "mplate": 1166,
      "Ġusing": 1167,
      "bs": 1168,
      "Ġax": 1169,
      "Ġrow": 1170,
      "ises": 1171,
      "Ġmin": 1172,
      "Ġtable": 1173,
      "clude": 1174,
      "debug": 1175,
      "values": 1176,
      "met": 1177,
      "())": 1178,
      "action": 1179,
      "Ke": 1180,
      "ution": 1181,
      "items": 1182,
      "utes": 1183,
      "Ġ4": 1184,
      "com": 1185,
      "Ġsy": 1186,
      "Ġ}": 1187,
      "write": 1188,
      "ĠJ": 1189,
      "aders": 1190,
      "PI": 1191,
      "block": 1192,
      "Ġpoint": 1193,
      "Ġsh": 1194,
      "si": 1195,
      "Ġreturns": 1196,
      "Co": 1197,
      "//": 1198,
      "etime": 1199,
      "Ġimage": 1200,
      "Ġass": 1201,
      "Ġtra": 1202,
      "ved": 1203,
      "lean": 1204,
      "Ġfilename": 1205,
      "func": 1206,
      "lection": 1207,
      "cre": 1208,
      "Ġdoes": 1209,
      "Ġmodule": 1210,
      "Ġfound": 1211,
      "present": 1212,
      "Ġrange": 1213,
      "update": 1214,
      "Ġthen": 1215,
      "Ġsize": 1216,
      "da": 1217,
      "rix": 1218,
      "main": 1219,
      "01": 1220,
      "atetime": 1221,
      "Ġmet": 1222,
      "ns": 1223,
      "Ġvariable": 1224,
      "pts": 1225,
      "ĠCon": 1226,
      "ong": 1227,
      "nect": 1228,
      "her": 1229,
      "mi": 1230,
      "Ġwork": 1231,
      "Ġprovi": 1232,
      "ĠĠĠĠĠĠĠĠĠĠ": 1233,
      "Ġiter": 1234,
      "Ġreturned": 1235,
      "lib": 1236,
      "rig": 1237,
      "Ġdoc": 1238,
      "ain": 1239,
      "Ġarguments": 1240,
      "Ġlabel": 1241,
      "ĠĠĠĠĠĠĠĠĠĠĠĠĠĠĠĠĠĠĠĠĠĠĠĠĠĠĠ": 1242,
      "itial": 1243,
      "run": 1244,
      "annel": 1245,
      "quence": 1246,
      "://": 1247,
      "stem": 1248,
      "gn": 1249,
      "Ġmo": 1250,
      "Ġtag": 1251,
      "Ġpos": 1252,
      "ĠSe": 1253,
      "ash": 1254,
      "ative": 1255,
      "Ġbut": 1256,
      "ast": 1257,
      "Par": 1258,
      "label": 1259,
      "=\"": 1260,
      "Key": 1261,
      "ark": 1262,
      "Ġlogger": 1263,
      "with": 1264,
      "Ġcreate": 1265,
      "inter": 1266,
      "Type": 1267,
      "filen": 1268,
      "Ġdirectory": 1269,
      "Data": 1270,
      "Ġyou": 1271,
      "Returns": 1272,
      "ference": 1273,
      "ID": 1274,
      "parse": 1275,
      "Ġpl": 1276,
      "etwork": 1277,
      "lob": 1278,
      "Ġresource": 1279,
      "Ġfilter": 1280,
      "lay": 1281,
      "Ġcontext": 1282,
      "Ġsign": 1283,
      "keys": 1284,
      "fil": 1285,
      "shape": 1286,
      "filename": 1287,
      "ert": 1288,
      "ref": 1289,
      "api": 1290,
      "ized": 1291,
      "##": 1292,
      "Ġclient": 1293,
      "LE": 1294,
      "Ġrepresent": 1295,
      "Set": 1296,
      "ME": 1297,
      "Ġparameters": 1298,
      "ume": 1299,
      "scription": 1300,
      "Ġparameter": 1301,
      "Ġ{'": 1302,
      "formation": 1303,
      "ures": 1304,
      "efault": 1305,
      "ingle": 1306,
      "'):": 1307,
      "arg": 1308,
      "-+": 1309,
      "df": 1310,
      "Ġcre": 1311,
      "ormal": 1312,
      "gra": 1313,
      "idth": 1314,
      "Ġsame": 1315,
      "ix": 1316,
      "job": 1317,
      "ĠX": 1318,
      "ĠID": 1319,
      "Ġu": 1320,
      "cy": 1321,
      "Ġrequi": 1322,
      "rid": 1323,
      "Ġopen": 1324,
      "Ġparams": 1325,
      "sum": 1326,
      "ches": 1327,
      "types": 1328,
      "call": 1329,
      "Ġdefin": 1330,
      "Ġwas": 1331,
      "Ġlength": 1332,
      "Ġindi": 1333,
      "returns": 1334,
      "Pro": 1335,
      "cul": 1336,
      "status": 1337,
      "Ġav": 1338,
      "itle": 1339,
      "hand": 1340,
      "Ġwhere": 1341,
      "Ġorder": 1342,
      "wise": 1343,
      "spe": 1344,
      "Ġpack": 1345,
      "clo": 1346,
      "part": 1347,
      "pend": 1348,
      "Ġfe": 1349,
      "ĠAn": 1350,
      "Ġserver": 1351,
      "Ġuni": 1352,
      "ating": 1353,
      "tings": 1354,
      "ging": 1355,
      "Ġresults": 1356,
      "Ġact": 1357,
      "client": 1358,
      "Ġblock": 1359,
      "OR": 1360,
      "tag": 1361,
      "Ġprocess": 1362,
      "rip": 1363,
      "Ġcontent": 1364,
      "Ġfol": 1365,
      "[:": 1366,
      "ody": 1367,
      "iled": 1368,
      "Ġoper": 1369,
      "Ġad": 1370,
      "chema": 1371,
      "ous": 1372,
      "``.": 1373,
      "check": 1374,
      "'],": 1375,
      "Ġobj": 1376,
      "fore": 1377,
      "query": 1378,
      "mpt": 1379,
      "ĠSt": 1380,
      "we": 1381,
      "Ġrecord": 1382,
      "ible": 1383,
      "item": 1384,
      "message": 1385,
      "filter": 1386,
      "andom": 1387,
      "entifi": 1388,
      "sg": 1389,
      "ins": 1390,
      "new": 1391,
      "-+-+": 1392,
      "Ġ->": 1393,
      "process": 1394,
      "core": 1395,
      "Ġcontaining": 1396,
      "cor": 1397,
      "rial": 1398,
      "output": 1399,
      "les": 1400,
      "DE": 1401,
      "Name": 1402,
      "Ġhost": 1403,
      "table": 1404,
      "ud": 1405,
      "ell": 1406,
      "imum": 1407,
      "Ġpas": 1408,
      "Id": 1409,
      "ids": 1410,
      "Se": 1411,
      "ready": 1412,
      "host": 1413,
      "Ġkeys": 1414,
      "Ġvi": 1415,
      "av": 1416,
      "mpty": 1417,
      "Ġprovided": 1418,
      "source": 1419,
      "fter": 1420,
      "Ġtoken": 1421,
      "Ġback": 1422,
      "unk": 1423,
      "np": 1424,
      "trans": 1425,
      "Ġmult": 1426,
      "Ġ--": 1427,
      "RL": 1428,
      "token": 1429,
      "old": 1430,
      "input": 1431,
      "ccess": 1432,
      "Ġobjects": 1433,
      "Ġsort": 1434,
      "ization": 1435,
      "Res": 1436,
      "ĠĠĠĠĠĠĠĠĠĠĠĠĠ": 1437,
      "Ġtask": 1438,
      "event": 1439,
      "Ġrel": 1440,
      "Ġjson": 1441,
      "response": 1442,
      "Ġcount": 1443,
      "be": 1444,
      "Ġtw": 1445,
      "imp": 1446,
      "().": 1447,
      "Ġext": 1448,
      "Ġsc": 1449,
      "ĠDefault": 1450,
      "Ġcase": 1451,
      "Ġ5": 1452,
      "Ġpassed": 1453,
      "`,": 1454,
      "viron": 1455,
      "face": 1456,
      "Ġoptions": 1457,
      "queue": 1458,
      "Ġits": 1459,
      "Ġchar": 1460,
      "Ġsingle": 1461,
      "pack": 1462,
      "indow": 1463,
      "Ġstatus": 1464,
      "db": 1465,
      "files": 1466,
      "Ġcontin": 1467,
      "attern": 1468,
      "io": 1469,
      "Ġextra": 1470,
      "((": 1471,
      "Ġinformation": 1472,
      "Ġpri": 1473,
      "raw": 1474,
      "ify": 1475,
      "ailable": 1476,
      "Ġsecon": 1477,
      "rit": 1478,
      "Ġaut": 1479,
      "Ġshape": 1480,
      "float": 1481,
      "rc": 1482,
      "mat": 1483,
      "struct": 1484,
      "'])": 1485,
      "module": 1486,
      "cent": 1487,
      "Ġlast": 1488,
      "Ġpropert": 1489,
      "Ġhtt": 1490,
      "AL": 1491,
      "Ġoff": 1492,
      "off": 1493,
      "var": 1494,
      "cls": 1495,
      "Ġparent": 1496,
      "dis": 1497,
      "sy": 1498,
      "Ġservice": 1499,
      "Ġinte": 1500,
      "length": 1501,
      "ats": 1502,
      "Ġexception": 1503,
      "Ġag": 1504,
      "Ġupdate": 1505,
      "Ġneed": 1506,
      "msg": 1507,
      "Ġdiff": 1508,
      "like": 1509,
      "Ġsession": 1510,
      "Ġallow": 1511,
      "ĠRa": 1512,
      "Ar": 1513,
      "Ġalready": 1514,
      "(),": 1515,
      "AR": 1516,
      "Ġconnection": 1517,
      "create": 1518,
      "Ġattribute": 1519,
      "Ġmore": 1520,
      "cate": 1521,
      "Ġman": 1522,
      "amb": 1523,
      "Ġport": 1524,
      "Ġtimeout": 1525,
      "Add": 1526,
      "Ġmsg": 1527,
      "utils": 1528,
      "Ġconfiguration": 1529,
      "Ġthere": 1530,
      "Ġaction": 1531,
      "method": 1532,
      "play": 1533,
      "ld": 1534,
      "no": 1535,
      "Ġnumpy": 1536,
      "Ġenco": 1537,
      "ner": 1538,
      "Ġcontinue": 1539,
      "ĠFor": 1540,
      "context": 1541,
      "rie": 1542,
      "Ġsalt": 1543,
      "Ġcur": 1544,
      "Ġthan": 1545,
      "Ġexec": 1546,
      "column": 1547,
      "Ġyield": 1548,
      "itions": 1549,
      "ĠCo": 1550,
      "resh": 1551,
      "etwe": 1552,
      "lication": 1553,
      "Ġmay": 1554,
      "level": 1555,
      "target": 1556,
      "SE": 1557,
      "etween": 1558,
      "ĠData": 1559,
      "Ġmode": 1560,
      "Ġarg": 1561,
      "TE": 1562,
      "Ġed": 1563,
      "ick": 1564,
      "Ġ.": 1565,
      "ĠReturn": 1566,
      "vid": 1567,
      "Ġwhile": 1568,
      "10": 1569,
      "session": 1570,
      "Ġcls": 1571,
      "ĠQ": 1572,
      "Ġ__": 1573,
      "mt": 1574,
      "Ġheader": 1575,
      "Ġentry": 1576,
      "pri": 1577,
      "plot": 1578,
      "ake": 1579,
      "List": 1580,
      "Ġstream": 1581,
      "arning": 1582,
      "ML": 1583,
      "match": 1584,
      "ĠĠĠĠĠĠĠĠĠĠĠĠ": 1585,
      "Ġlocal": 1586,
      "]:": 1587,
      "LI": 1588,
      "De": 1589,
      "Frame": 1590,
      "Ġconvert": 1591,
      "err": 1592,
      "Ġpage": 1593,
      "ector": 1594,
      "Ġfind": 1595,
      "Ġ['": 1596,
      "File": 1597,
      "Ġtest": 1598,
      "][": 1599,
      "Ġload": 1600,
      "sign": 1601,
      "ĠAPI": 1602,
      "Ġsupport": 1603,
      "stamp": 1604,
      "auth": 1605,
      "las": 1606,
      "of": 1607,
      "Ġassert": 1608,
      "options": 1609,
      "mission": 1610,
      "Ġfields": 1611,
      "Lo": 1612,
      "root": 1613,
      "tems": 1614,
      "content": 1615,
      "Ġtemplate": 1616,
      "Ġorig": 1617,
      "Ġroot": 1618,
      "direct": 1619,
      ")))": 1620,
      "Ġbetween": 1621,
      "Ġdocument": 1622,
      "iss": 1623,
      "Ġdate": 1624,
      "64": 1625,
      "Ġmatrix": 1626,
      "ager": 1627,
      "ambda": 1628,
      "ailed": 1629,
      "xy": 1630,
      "mension": 1631,
      "pr": 1632,
      "TP": 1633,
      "Ġlevel": 1634,
      "du": 1635,
      "man": 1636,
      "command": 1637,
      "frame": 1638,
      "Ġsequence": 1639,
      "right": 1640,
      "doc": 1641,
      "entifier": 1642,
      "ĠY": 1643,
      "SON": 1644,
      "Ġbytes": 1645,
      "resource": 1646,
      "Ġab": 1647,
      "ĠčĊ": 1648,
      "Ġver": 1649,
      "ptional": 1650,
      "Ġaddress": 1651,
      "Ġtwo": 1652,
      "apping": 1653,
      "reak": 1654,
      "ither": 1655,
      "Ġchild": 1656,
      "ensor": 1657,
      "ĠExample": 1658,
      "ĠException": 1659,
      "Ġsearch": 1660,
      "tx": 1661,
      "ync": 1662,
      "htt": 1663,
      "Ġmetadata": 1664,
      "Ġsome": 1665,
      "ternal": 1666,
      "ans": 1667,
      "ph": 1668,
      "ency": 1669,
      "ĠRaises": 1670,
      "Un": 1671,
      "ĠList": 1672,
      "Ġafter": 1673,
      "Ġauth": 1674,
      "Ġnon": 1675,
      "find": 1676,
      "Ġ('": 1677,
      "ĠType": 1678,
      "Ġinclude": 1679,
      "fy": 1680,
      "Ġnext": 1681,
      "ustom": 1682,
      "Ġitems": 1683,
      "Ġavailable": 1684,
      "Ġbefore": 1685,
      "Create": 1686,
      "image": 1687,
      "Ġmake": 1688,
      "ful": 1689,
      "Ġheaders": 1690,
      "ĠKey": 1691,
      "Ġref": 1692,
      "Ġaxis": 1693,
      "Ġbot": 1694,
      "arn": 1695,
      "lp": 1696,
      "ĠPy": 1697,
      "Ġcom": 1698,
      "uri": 1699,
      "Ġjob": 1700,
      "ting": 1701,
      "Ġdevice": 1702,
      "mail": 1703,
      "TI": 1704,
      "mote": 1705,
      "Ser": 1706,
      "lobal": 1707,
      "ordin": 1708,
      "idx": 1709,
      "AN": 1710,
      "Ġparse": 1711,
      "Ġcache": 1712,
      "ĠWhe": 1713,
      "env": 1714,
      "cache": 1715,
      "Ġgraph": 1716,
      "ring": 1717,
      "itional": 1718,
      "Ġlay": 1719,
      "ugh": 1720,
      "ential": 1721,
      "parent": 1722,
      "bool": 1723,
      "ĠGet": 1724,
      "are": 1725,
      "ĠĠĠĠĠĠĠĠĠĠĠĠĠĠĠĠĠ": 1726,
      "ffer": 1727,
      "ored": 1728,
      "mary": 1729,
      "Ġinst": 1730,
      "link": 1731,
      "'))": 1732,
      "lease": 1733,
      "ols": 1734,
      "ĠURL": 1735,
      "view": 1736,
      "Ġalso": 1737,
      "Ġsys": 1738,
      "Ġinfo": 1739,
      "Ġbased": 1740,
      "number": 1741,
      "est": 1742,
      "lines": 1743,
      "igh": 1744,
      "current": 1745,
      "function": 1746,
      "gor": 1747,
      "atures": 1748,
      "rel": 1749,
      "PE": 1750,
      "ib": 1751,
      "``,": 1752,
      "cept": 1753,
      "Ġdatabase": 1754,
      "Ġlocation": 1755,
      "Ġdataset": 1756,
      "swith": 1757,
      "Ġfla": 1758,
      "olean": 1759,
      "store": 1760,
      "curs": 1761,
      "Ġcalled": 1762,
      "pected": 1763,
      "Ġprefix": 1764,
      "Ġlimit": 1765,
      "Ġcreated": 1766,
      "respon": 1767,
      "limit": 1768,
      "Ġfollow": 1769,
      ")]": 1770,
      "Exception": 1771,
      "Ġwhether": 1772,
      "AC": 1773,
      ".,": 1774,
      "Ġdtype": 1775,
      "net": 1776,
      "Ġlogging": 1777,
      "Ġstruct": 1778,
      "Ġproject": 1779,
      "Ġinitial": 1780,
      "ric": 1781,
      "ves": 1782,
      "ĠSee": 1783,
      "Ġparser": 1784,
      "gment": 1785,
      "Ġlines": 1786,
      "work": 1787,
      "Ġq": 1788,
      "ĠNot": 1789,
      "exception": 1790,
      "Ġcomm": 1791,
      "lable": 1792,
      "Ġbeen": 1793,
      "Ġclo": 1794,
      "Ġdist": 1795,
      "ĠĠĠĠĠĠĠĠĠĠĠĠĠĠ": 1796,
      "su": 1797,
      "Ġcopy": 1798,
      "Ġap": 1799,
      "last": 1800,
      "(*": 1801,
      "Ġoffset": 1802,
      "ret": 1803,
      "Ġkeyword": 1804,
      "copy": 1805,
      "Ġcolor": 1806,
      "prefix": 1807,
      "ĠIt": 1808,
      "32": 1809,
      "order": 1810,
      "vis": 1811,
      "Ġmap": 1812,
      "Ġsp": 1813,
      "Ġremove": 1814,
      "12": 1815,
      "ility": 1816,
      "Ġwrite": 1817,
      "ular": 1818,
      "Ġmem": 1819,
      "Ġrequired": 1820,
      "address": 1821,
      "Ġnormal": 1822,
      "Ġtemp": 1823,
      "pop": 1824,
      "ĠJSON": 1825,
      "script": 1826,
      "nown": 1827,
      "Ġdatetime": 1828,
      "Ġchannel": 1829,
      "Ġempty": 1830,
      "Ġexample": 1831,
      "Ġlink": 1832,
      "Ġcolumns": 1833,
      "strip": 1834,
      "exist": 1835,
      "print": 1836,
      "Ġequ": 1837,
      "Ġcallback": 1838,
      "Ġfunc": 1839,
      "Ġotherwise": 1840,
      "iple": 1841,
      "========": 1842,
      "})": 1843,
      "ĠAdd": 1844,
      "ister": 1845,
      "task": 1846,
      "Ġexists": 1847,
      "ait": 1848,
      "Check": 1849,
      "fields": 1850,
      "dered": 1851,
      "Ġsend": 1852,
      "ĠUn": 1853,
      "'),": 1854,
      "Ġnodes": 1855,
      "cmd": 1856,
      "actor": 1857,
      "round": 1858,
      "html": 1859,
      "vironment": 1860,
      "Ġsum": 1861,
      "SS": 1862,
      "go": 1863,
      "DO": 1864,
      "Ġframe": 1865,
      "yload": 1866,
      "sp": 1867,
      "Ġign": 1868,
      "Ġbreak": 1869,
      "Ġreference": 1870,
      "ank": 1871,
      "tal": 1872,
      "Ġexp": 1873,
      "EN": 1874,
      "Ġfull": 1875,
      "pped": 1876,
      "Ġcorrespon": 1877,
      "pass": 1878,
      "range": 1879,
      "ict": 1880,
      "stream": 1881,
      "ose": 1882,
      "cope": 1883,
      "uster": 1884,
      "lower": 1885,
      "ĠHT": 1886,
      "replace": 1887,
      "open": 1888,
      "yle": 1889,
      "uid": 1890,
      "comm": 1891,
      "top": 1892,
      "header": 1893,
      "wait": 1894,
      "Ġbin": 1895,
      "Ġfail": 1896,
      "Ġstrings": 1897,
      "anges": 1898,
      "Ġselect": 1899,
      "oci": 1900,
      "ero": 1901,
      "width": 1902,
      "000": 1903,
      "Ġter": 1904,
      "test": 1905,
      "Ġali": 1906,
      "ownload": 1907,
      "ide": 1908,
      "etch": 1909,
      "ities": 1910,
      "Ġdefined": 1911,
      "flow": 1912,
      "Ġerrors": 1913,
      "FI": 1914,
      "pression": 1915,
      "RI": 1916,
      ")):": 1917,
      "Ġdiffe": 1918,
      "Ġattributes": 1919,
      "Ġdf": 1920,
      ":`~": 1921,
      "element": 1922,
      "ĠPro": 1923,
      "orage": 1924,
      "Ġweight": 1925,
      "Ġlike": 1926,
      "very": 1927,
      "ĠĠĠĠĠĠĠĠĠĠĠĠĠĠĠĠĠĠĠĠĠĠĠĠĠĠĠĠĠĠĠ": 1928,
      "ql": 1929,
      "ĠĠĠĠĠĠĠĠĠĠĠĠĠĠĠĠĠĠ": 1930,
      "mode": 1931,
      "Ġdepend": 1932,
      "Ġ6": 1933,
      "Ġnetwork": 1934,
      "LO": 1935,
      "ĠSet": 1936,
      "Ġdest": 1937,
      "[-": 1938,
      "Ġtop": 1939,
      "search": 1940,
      "ster": 1941,
      "pth": 1942,
      "ĠNote": 1943,
      "},": 1944,
      "Ġeither": 1945,
      "ges": 1946,
      "Ġbuild": 1947,
      "...": 1948,
      "Ġcharact": 1949,
      "raises": 1950,
      "ĠĠĠĠĠĠĠĠĠĠĠĠĠĠĠĠĠĠĠĠĠ": 1951,
      "Ġaccess": 1952,
      "ass": 1953,
      "Ġpython": 1954,
      "Ġthem": 1955,
      "Ġ'.": 1956,
      "Ġsuccess": 1957,
      "section": 1958,
      "ĠWe": 1959,
      "clu": 1960,
      "Ġpassword": 1961,
      "Ġcmd": 1962,
      "Ġbody": 1963,
      "graph": 1964,
      "ĠName": 1965,
      "Ġattr": 1966,
      "Ġlook": 1967,
      "itude": 1968,
      "Ġplot": 1969,
      "Ġsample": 1970,
      "Value": 1971,
      "child": 1972,
      "ride": 1973,
      "vices": 1974,
      "Ġtypes": 1975,
      "stra": 1976,
      "connect": 1977,
      "Ġwh": 1978,
      "loc": 1979,
      "angu": 1980,
      "Ġcompon": 1981,
      "Ġenum": 1982,
      "Ġword": 1983,
      "ice": 1984,
      "server": 1985,
      "Ġdel": 1986,
      "Ġinteger": 1987,
      "ĠĠĠĠĠĠĠĠĠĠĠĠĠĠĠĠĠĠĠĠ": 1988,
      "datetime": 1989,
      "dout": 1990,
      "exec": 1991,
      "ugin": 1992,
      "offset": 1993,
      "Ġwant": 1994,
      "The": 1995,
      "Ġelements": 1996,
      "olume": 1997,
      "uni": 1998,
      "RO": 1999,
      "istr": 2000,
      "rol": 2001,
      "ssages": 2002,
      "color": 2003,
      "Ġlib": 2004,
      "Ġpackage": 2005,
      "ination": 2006,
      "]]": 2007,
      "Ġcollection": 2008,
      "ling": 2009,
      "cale": 2010,
      "aded": 2011,
      "ĠTypeError": 2012,
      "difi": 2013,
      "Ġtree": 2014,
      "hent": 2015,
      "ification": 2016,
      "Ġdb": 2017,
      "ET": 2018,
      "Ġpoints": 2019,
      "hentic": 2020,
      "gen": 2021,
      "Ġsettings": 2022,
      "headers": 2023,
      "Ġexisting": 2024,
      "bit": 2025,
      "other": 2026,
      "SI": 2027,
      "record": 2028,
      "rary": 2029,
      "lied": 2030,
      "Ġbound": 2031,
      "Ġtf": 2032,
      "Ġsee": 2033,
      "ux": 2034,
      "cry": 2035,
      "Ġimplement": 2036,
      "Ġsystem": 2037,
      "lasses": 2038,
      "local": 2039,
      "idget": 2040,
      "Ġ10": 2041,
      "enerate": 2042,
      "Ġsection": 2043,
      "Ġcontains": 2044,
      "Ġconnect": 2045,
      "wer": 2046,
      "axis": 2047,
      "tuple": 2048,
      "']:": 2049,
      "Ġrequests": 2050,
      "title": 2051,
      "Ġsorted": 2052,
      "(_": 2053,
      "Ġrandom": 2054,
      "ater": 2055,
      "Ġview": 2056,
      "cies": 2057,
      "my": 2058,
      "Ġthread": 2059,
      "rt": 2060,
      "fn": 2061,
      "hash": 2062,
      "service": 2063,
      "fl": 2064,
      "verse": 2065,
      "vo": 2066,
      "Ġfl": 2067,
      "remove": 2068,
      "Ġdescription": 2069,
      "Ġpattern": 2070,
      "Ġupd": 2071,
      "bytes": 2072,
      "Ġposition": 2073,
      "cat": 2074,
      "ics": 2075,
      "Ġgo": 2076,
      "Ġdimension": 2077,
      "----------------": 2078,
      "Ġchunk": 2079,
      "Time": 2080,
      "Comp": 2081,
      "Ġvariables": 2082,
      "Ġregion": 2083,
      "close": 2084,
      "####": 2085,
      "ndarray": 2086,
      "build": 2087,
      "Ġschema": 2088,
      "fer": 2089,
      "Ġold": 2090,
      "project": 2091,
      "Ġraw": 2092,
      "kip": 2093,
      "Ġcoordin": 2094,
      "bar": 2095,
      "ĠOptional": 2096,
      "ssible": 2097,
      "Ġcalcul": 2098,
      "Ġ8": 2099,
      "mon": 2100,
      "Ġassoci": 2101,
      "Ġpub": 2102,
      "req": 2103,
      "metadata": 2104,
      "char": 2105,
      "ĠK": 2106,
      "ript": 2107,
      "util": 2108,
      "ically": 2109,
      "points": 2110,
      "ttrib": 2111,
      "ĠPython": 2112,
      "ward": 2113,
      "alid": 2114,
      "Ġgetattr": 2115,
      "Up": 2116,
      "Ġthey": 2117,
      "umber": 2118,
      "ear": 2119,
      "page": 2120,
      "Ġhandler": 2121,
      "rough": 2122,
      "Ġ>=": 2123,
      "Ġhandle": 2124,
      "Ġpair": 2125,
      "CO": 2126,
      "mod": 2127,
      "stead": 2128,
      "Ġmultiple": 2129,
      "ts": 2130,
      "untime": 2131,
      "Ġoperation": 2132,
      "org": 2133,
      "bin": 2134,
      "abled": 2135,
      "vious": 2136,
      "the": 2137,
      "issing": 2138,
      "Convert": 2139,
      "25": 2140,
      "Ġpla": 2141,
      "Ġ'%": 2142,
      "Ġqueue": 2143,
      "Ġhash": 2144,
      "Ġaccount": 2145,
      "izer": 2146,
      "Ġtotal": 2147,
      "timeout": 2148,
      "Ġhttp": 2149,
      "NA": 2150,
      "exists": 2151,
      "sort": 2152,
      "now": 2153,
      "alog": 2154,
      "box": 2155,
      "template": 2156,
      "pol": 2157,
      "handle": 2158,
      "rieve": 2159,
      "ĠĠĠĠĠĠĠĠĠĠĠĠĠĠĠĠĠĠĠĠĠĠ": 2160,
      "rapper": 2161,
      "sca": 2162,
      "variable": 2163,
      "Ġjust": 2164,
      "Ġseconds": 2165,
      "dim": 2166,
      "send": 2167,
      "Ġremo": 2168,
      "tocol": 2169,
      "ome": 2170,
      "Ġob": 2171,
      "-+-+-+-+": 2172,
      "term": 2173,
      "'].": 2174,
      "UT": 2175,
      "({": 2176,
      "Ġmask": 2177,
      "ĠĠĠĠĠĠĠĠĠĠĠĠĠĠĠĠĠĠĠĠĠĠĠĠĠ": 2178,
      "anguage": 2179,
      "roll": 2180,
      "kens": 2181,
      "post": 2182,
      "spec": 2183,
      "nodes": 2184,
      "Ġmark": 2185,
      "connection": 2186,
      "hed": 2187,
      "pub": 2188,
      "math": 2189,
      "Ġsave": 2190,
      "andas": 2191,
      "Ġoriginal": 2192,
      "anged": 2193,
      "http": 2194,
      "Ġund": 2195,
      "itor": 2196,
      "Ġwait": 2197,
      "ĠAl": 2198,
      "Ġlabels": 2199,
      "stant": 2200,
      "Ġwithin": 2201,
      "]):": 2202,
      "Ġprofile": 2203,
      "book": 2204,
      "location": 2205,
      "mask": 2206,
      "licy": 2207,
      "ered": 2208,
      "gest": 2209,
      "exp": 2210,
      "Ġ&": 2211,
      "Ġtitle": 2212,
      "init": 2213,
      "Ġadded": 2214,
      "Ġsa": 2215,
      "Ġet": 2216,
      "Ġfinal": 2217,
      "Ġtheir": 2218,
      "Ġspecific": 2219,
      "ĠĠĠĠĠĠĠĠĠĠĠĠĠĠĠĠĠĠĠĠĠĠĠĠĠĠĠĠ": 2220,
      "logger": 2221,
      "erge": 2222,
      "Ġreplace": 2223,
      "Not": 2224,
      "Ġgen": 2225,
      "requ": 2226,
      "tails": 2227,
      "Ġsplit": 2228,
      "Ġfeature": 2229,
      "rection": 2230,
      "Ġdesc": 2231,
      "iod": 2232,
      "lear": 2233,
      "entry": 2234,
      "cond": 2235,
      "oc": 2236,
      "dtype": 2237,
      "AG": 2238,
      ".')": 2239,
      "startswith": 2240,
      "del": 2241,
      "Ġcell": 2242,
      "mbol": 2243,
      ".\")": 2244,
      "AD": 2245,
      "Ġcontainer": 2246,
      "Ġencoding": 2247,
      "parser": 2248,
      "mark": 2249,
      "']['": 2250,
      "ĠDe": 2251,
      "UL": 2252,
      "utf": 2253,
      "Ġph": 2254,
      "aut": 2255,
      "Ġ]": 2256,
      "Ġcustom": 2257,
      "Ġ<=": 2258,
      "optional": 2259,
      "Ġcorresponding": 2260,
      "rs": 2261,
      "ribution": 2262,
      "ced": 2263,
      "}'.": 2264,
      "ĠExamples": 2265,
      "Ġunique": 2266,
      "ĠCheck": 2267,
      "Ġfollowing": 2268,
      "Ġinstead": 2269,
      "channel": 2270,
      "xml": 2271,
      "ived": 2272,
      "To": 2273,
      "ely": 2274,
      "Ġvar": 2275,
      "Ġbatch": 2276,
      "ogle": 2277,
      "Ġproperty": 2278,
      "Ġvari": 2279,
      "ump": 2280,
      "guments": 2281,
      "stack": 2282,
      "Ġgra": 2283,
      "Ġpi": 2284,
      "entity": 2285,
      "encode": 2286,
      "Ġcond": 2287,
      "bose": 2288,
      "med": 2289,
      "Ġrule": 2290,
      "ince": 2291,
      "Ġenumer": 2292,
      "Ġunicode": 2293,
      "ING": 2294,
      "Ġwidth": 2295,
      "delete": 2296,
      "Ġrece": 2297,
      "mem": 2298,
      "Ġop": 2299,
      "Ġbeing": 2300,
      "Ġlayer": 2301,
      "thing": 2302,
      "dist": 2303,
      "eded": 2304,
      "riter": 2305,
      "Ġdelete": 2306,
      "Ġthrough": 2307,
      "Ġapi": 2308,
      "Ġproperties": 2309,
      "Ġcli": 2310,
      "Ġserial": 2311,
      "ĠĠĠĠĠĠĠĠĠĠĠĠĠĠĠĠĠĠĠĠĠĠĠĠĠĠ": 2312,
      "meta": 2313,
      "Ġ\"\"": 2314,
      "Ġshow": 2315,
      "En": 2316,
      "gram": 2317,
      "propert": 2318,
      "Ch": 2319,
      "Ġdifferent": 2320,
      "ttribute": 2321,
      "olution": 2322,
      "ted": 2323,
      "settings": 2324,
      "raise": 2325,
      "Ġsent": 2326,
      "Ġstep": 2327,
      "space": 2328,
      "ven": 2329,
      "ĠCLI": 2330,
      "medi": 2331,
      "ob": 2332,
      "redential": 2333,
      "keep": 2334,
      "Ġboolean": 2335,
      "ĠTO": 2336,
      "Ġdecor": 2337,
      "ged": 2338,
      "cf": 2339,
      "ĠLo": 2340,
      "sing": 2341,
      "ten": 2342,
      "yp": 2343,
      "cho": 2344,
      "alled": 2345,
      "Ġrows": 2346,
      "derr": 2347,
      "gr": 2348,
      "Ġidentifier": 2349,
      "CE": 2350,
      "Ġpresent": 2351,
      "Ġenv": 2352,
      "Ġenvironment": 2353,
      "Ġextract": 2354,
      "Ġabout": 2355,
      "Ġmaximum": 2356,
      "Read": 2357,
      "valu": 2358,
      "Ġnote": 2359,
      "ĠRes": 2360,
      "callback": 2361,
      "Ġpost": 2362,
      "pha": 2363,
      "side": 2364,
      "leted": 2365,
      "Ġglobal": 2366,
      "Config": 2367,
      "Ġstop": 2368,
      "ions": 2369,
      "andard": 2370,
      "Ġappro": 2371,
      "Ġremote": 2372,
      "tree": 2373,
      "Request": 2374,
      "upport": 2375,
      "TY": 2376,
      "Ġsecond": 2377,
      "\\\\": 2378,
      "Ġpossible": 2379,
      "cause": 2380,
      "Ġstat": 2381,
      "weight": 2382,
      "Me": 2383,
      "abs": 2384,
      "Ġright": 2385,
      "Ġmapping": 2386,
      "Ġchange": 2387,
      "Hand": 2388,
      "pk": 2389,
      "Ġhasattr": 2390,
      "body": 2391,
      "\"):": 2392,
      "ont": 2393,
      "nder": 2394,
      "over": 2395,
      "Ġusername": 2396,
      "enco": 2397,
      "Ġwindow": 2398,
      "ush": 2399,
      "vals": 2400,
      "nap": 2401,
      "(**": 2402,
      "decode": 2403,
      "lice": 2404,
      "Ġassociated": 2405,
      "Ġfailed": 2406,
      "ured": 2407,
      "serial": 2408,
      "Ġsuch": 2409,
      "Ġunit": 2410,
      "fla": 2411,
      "rest": 2412,
      "ĠKeyError": 2413,
      "Ġstore": 2414,
      "Ġnamespace": 2415,
      "duct": 2416,
      "exc": 2417,
      "Ġerr": 2418,
      "sets": 2419,
      "ĠHTTP": 2420,
      "batch": 2421,
      "Ġhelp": 2422,
      "conf": 2423,
      "lambda": 2424,
      "11": 2425,
      "Qu": 2426,
      "Ġpaths": 2427,
      "has": 2428,
      "ffect": 2429,
      "Ġenumerate": 2430,
      "until": 2431,
      "opts": 2432,
      "Ġsim": 2433,
      "Ġ'*": 2434,
      "Ġtrue": 2435,
      "Ġprevious": 2436,
      "Ġwrit": 2437,
      "rop": 2438,
      "Ġoc": 2439,
      "extra": 2440,
      "objects": 2441,
      "ĠCreate": 2442,
      "ined": 2443,
      "Ġsupported": 2444,
      "older": 2445,
      "mount": 2446,
      "seq": 2447,
      "ually": 2448,
      "tract": 2449,
      "Ġtags": 2450,
      "uted": 2451,
      "Ġ'/": 2452,
      "Ġdistance": 2453,
      "Ġvector": 2454,
      "99": 2455,
      "Ġdomain": 2456,
      "ĠSer": 2457,
      "ĠUse": 2458,
      "Ġgenerate": 2459,
      "Ġiterable": 2460,
      "Ġnd": 2461,
      "alys": 2462,
      "Ġrepresenting": 2463,
      "Ġparsed": 2464,
      "crypt": 2465,
      "Ġhttps": 2466,
      "uture": 2467,
      "Ġspecify": 2468,
      "Ġ''": 2469,
      "Ġpayload": 2470,
      "Ġmatching": 2471,
      "Ġextension": 2472,
      "gress": 2473,
      "posit": 2474,
      "ffix": 2475,
      "Object": 2476,
      "only": 2477,
      "Ġinvalid": 2478,
      "Ġdon": 2479,
      "Ġreport": 2480,
      "ason": 2481,
      "gorith": 2482,
      "save": 2483,
      "lex": 2484,
      "Col": 2485,
      "Ġwithout": 2486,
      "ware": 2487,
      "Ġinclu": 2488,
      "Ġunder": 2489,
      "]))": 2490,
      "Ġabs": 2491,
      "Ġforce": 2492,
      "Ġindic": 2493,
      "eta": 2494,
      "Ġmon": 2495,
      "stim": 2496,
      "results": 2497,
      "Ġmissing": 2498,
      "olve": 2499,
      "Ġexpression": 2500,
      "Ġcallable": 2501,
      "Ġendpoint": 2502,
      "quired": 2503,
      "device": 2504,
      "columns": 2505,
      "Ġrunning": 2506,
      "Ġsepar": 2507,
      "uild": 2508,
      "Ġdisplay": 2509,
      "Ġmy": 2510,
      "au": 2511,
      "python": 2512,
      "cp": 2513,
      "Ġsignal": 2514,
      "').": 2515,
      "0000": 2516,
      "matrix": 2517,
      "Ġboth": 2518,
      "Ġge": 2519,
      "indi": 2520,
      "MP": 2521,
      "Ġleft": 2522,
      "FA": 2523,
      "ences": 2524,
      "idd": 2525,
      "unter": 2526,
      "Ġmessages": 2527,
      "gory": 2528,
      "Ġapplication": 2529,
      "Ġexpected": 2530,
      "select": 2531,
      "fs": 2532,
      "Array": 2533,
      "CH": 2534,
      "16": 2535,
      "Ġagain": 2536,
      "ĠĠĠĠĠĠĠĠčĊ": 2537,
      "=[": 2538,
      "Ġsamples": 2539,
      "aml": 2540,
      "alysis": 2541,
      "Response": 2542,
      "Ġwho": 2543,
      "Ġyour": 2544,
      "handler": 2545,
      "password": 2546,
      "layer": 2547,
      "Ġpol": 2548,
      "reshold": 2549,
      "ĠOn": 2550,
      "Ġmatches": 2551,
      "Ġhere": 2552,
      "Ġevery": 2553,
      "ATE": 2554,
      "ĠIP": 2555,
      "Ġtimestamp": 2556,
      "ators": 2557,
      "istry": 2558,
      "random": 2559,
      "UN": 2560,
      "Ġcons": 2561,
      "Ġrepresentation": 2562,
      "Ġbash": 2563,
      "ĠTODO": 2564,
      "MA": 2565,
      "Ġdefaults": 2566,
      "Ġindices": 2567,
      "Dict": 2568,
      "akes": 2569,
      "mal": 2570,
      "Ġsimp": 2571,
      "gine": 2572,
      "active": 2573,
      "DI": 2574,
      "ww": 2575,
      "ily": 2576,
      "Ġapply": 2577,
      "description": 2578,
      "Ġcorrect": 2579,
      "gy": 2580,
      "No": 2581,
      "step": 2582,
      "sample": 2583,
      "Parse": 2584,
      "Ġfunctions": 2585,
      "Ġstructure": 2586,
      "network": 2587,
      "Ġlong": 2588,
      "Ġ7": 2589,
      "Ġbyte": 2590,
      "Ġassign": 2591,
      "Ġmean": 2592,
      "domain": 2593,
      "otal": 2594,
      "encies": 2595,
      "reates": 2596,
      "ie": 2597,
      "comment": 2598,
      "directory": 2599,
      "aries": 2600,
      "ias": 2601,
      "Path": 2602,
      "Ġopt": 2603,
      "ĠĠĠĠĠĠĠĠĠĠĠĠĠĠĠĠĠĠĠĠĠĠĠĠĠĠĠĠĠ": 2604,
      "ĠDefaults": 2605,
      "grid": 2606,
      "tach": 2607,
      "alcul": 2608,
      "Ġloop": 2609,
      "warning": 2610,
      "full": 2611,
      "sor": 2612,
      "cret": 2613,
      "Ġevents": 2614,
      "Ġinterface": 2615,
      "hell": 2616,
      "cloud": 2617,
      "Ġpd": 2618,
      "ices": 2619,
      "schema": 2620,
      "addr": 2621,
      "Node": 2622,
      "labels": 2623,
      "pc": 2624,
      "fici": 2625,
      "left": 2626,
      "zone": 2627,
      "Ġmeta": 2628,
      "vate": 2629,
      ")[": 2630,
      "Ġseries": 2631,
      "Form": 2632,
      "This": 2633,
      "Ġspace": 2634,
      "annot": 2635,
      "ĠComp": 2636,
      "next": 2637,
      "Ġndarray": 2638,
      "here": 2639,
      "Ġtransform": 2640,
      "PO": 2641,
      "EL": 2642,
      ".\"": 2643,
      "gorithm": 2644,
      "Log": 2645,
      "ek": 2646,
      "ways": 2647,
      "Ġbecause": 2648,
      "shot": 2649,
      "Ġiss": 2650,
      "Index": 2651,
      "down": 2652,
      "[:,": 2653,
      "requency": 2654,
      "Ġthese": 2655,
      "samples": 2656,
      "stat": 2657,
      "ites": 2658,
      "Found": 2659,
      "vider": 2660,
      "ranch": 2661,
      "Ġflag": 2662,
      "groups": 2663,
      "Ġpe": 2664,
      "Ġidx": 2665,
      "first": 2666,
      "pattern": 2667,
      "Ġauthor": 2668,
      "Ġzip": 2669,
      "Ġdoesn": 2670,
      "Ġind": 2671,
      "zip": 2672,
      "rm": 2673,
      "Ġ\"%": 2674,
      "DF": 2675,
      "Ret": 2676,
      "Ġmemory": 2677,
      "numpy": 2678,
      "wit": 2679,
      "Ġsha": 2680,
      "Ġcontents": 2681,
      "CON": 2682,
      "Ġrelative": 2683,
      "paths": 2684,
      "ĠĠĠĠĠĠĠĠĠĠĠĠĠĠĠĠĠĠĠĠĠĠĠĠĠĠĠĠĠĠ": 2685,
      "Ġ'*'": 2686,
      "Ġignore": 2687,
      "bound": 2688,
      "actory": 2689,
      "redentials": 2690,
      "ords": 2691,
      "Ġbinary": 2692,
      "ended": 2693,
      "Run": 2694,
      "Ġnow": 2695,
      "Ġstack": 2696,
      "Ġ9": 2697,
      "Invalid": 2698,
      "system": 2699,
      "OT": 2700,
      "temp": 2701,
      "inst": 2702,
      "ian": 2703,
      "extend": 2704,
      "ia": 2705,
      "Ġedge": 2706,
      "Ġip": 2707,
      "Ġvis": 2708,
      "ker": 2709,
      "Ġstored": 2710,
      "Ġexc": 2711,
      "Ġrep": 2712,
      "cli": 2713,
      "ĠDi": 2714,
      "omat": 2715,
      "mult": 2716,
      "na": 2717,
      "04": 2718,
      "metry": 2719,
      "delta": 2720,
      "Ġcent": 2721,
      "known": 2722,
      "ĠPath": 2723,
      "Ġhow": 2724,
      "river": 2725,
      "parameters": 2726,
      "Ġfig": 2727,
      "ĠLO": 2728,
      ":]": 2729,
      "Ġinstances": 2730,
      "oper": 2731,
      "ively": 2732,
      "'''": 2733,
      "gener": 2734,
      "Ġcomplete": 2735,
      "Ġcomponent": 2736,
      "Ġheight": 2737,
      "Ġtrain": 2738,
      "mage": 2739,
      "cker": 2740,
      "gin": 2741,
      "change": 2742,
      "ould": 2743,
      "cifi": 2744,
      "ving": 2745,
      "Ġuntil": 2746,
      "State": 2747,
      "QL": 2748,
      "rows": 2749,
      "ĠWhen": 2750,
      "pository": 2751,
      "verage": 2752,
      "src": 2753,
      "App": 2754,
      "napshot": 2755,
      "contain": 2756,
      "Element": 2757,
      "tect": 2758,
      "meth": 2759,
      "Ġcoordinates": 2760,
      "tags": 2761,
      "rate": 2762,
      "diff": 2763,
      "Ġtimes": 2764,
      "CT": 2765,
      "Ġcert": 2766,
      "Ġmethods": 2767,
      "Cont": 2768,
      "ĠDataFrame": 2769,
      "rict": 2770,
      "username": 2771,
      "Ġremoved": 2772,
      "orig": 2773,
      "vari": 2774,
      "izes": 2775,
      "Ġsuper": 2776,
      "NAME": 2777,
      "Ġow": 2778,
      "Ġhist": 2779,
      "Ġcate": 2780,
      "ĠFile": 2781,
      "access": 2782,
      "Ġut": 2783,
      "ĠOther": 2784,
      "Ġdetails": 2785,
      "andid": 2786,
      "termin": 2787,
      "profile": 2788,
      "ĠNumber": 2789,
      "bab": 2790,
      "sa": 2791,
      "Ġcould": 2792,
      "less": 2793,
      "Ġreal": 2794,
      "DataFrame": 2795,
      "oid": 2796,
      "ĠWhether": 2797,
      "Ġcluster": 2798,
      "ng": 2799,
      "ĠĠĠĠĠĠĠĠĠĠĠĠĠĠĠĠĠĠĠĠĠĠĠĠĠĠĠĠĠĠĠĠĠĠĠ": 2800,
      "stop": 2801,
      "Ġpk": 2802,
      "ross": 2803,
      "Ġtransaction": 2804,
      "Po": 2805,
      "buffer": 2806,
      "Ġequal": 2807,
      "chain": 2808,
      "Ġcannot": 2809,
      "Ġentries": 2810,
      "Ġawait": 2811,
      "uplic": 2812,
      "Ġwould": 2813,
      "tempt": 2814,
      "eros": 2815,
      "sys": 2816,
      "ram": 2817,
      "bers": 2818,
      "Ġkeep": 2819,
      "ystem": 2820,
      "Client": 2821,
      "Ġ'{": 2822,
      "mbed": 2823,
      "Ġperform": 2824,
      "Ġzero": 2825,
      "olute": 2826,
      "errors": 2827,
      "Ġmodifi": 2828,
      "Ġsocket": 2829,
      "String": 2830,
      "Ġadditional": 2831,
      "Ġclean": 2832,
      "rics": 2833,
      "AB": 2834,
      "can": 2835,
      "FF": 2836,
      "ending": 2837,
      "IT": 2838,
      "mean": 2839,
      "Ġauthentic": 2840,
      "DB": 2841,
      "mbers": 2842,
      "Ġscale": 2843,
      "Ġlambda": 2844,
      "Ġneeded": 2845,
      "ilter": 2846,
      "straint": 2847,
      "Ġ'-": 2848,
      "Ġdown": 2849,
      "gre": 2850,
      "Failed": 2851,
      "salt": 2852,
      "Ġsrc": 2853,
      "Ġsignature": 2854,
      "Ġscope": 2855,
      "Ġchain": 2856,
      "Ġrequested": 2857,
      "Ġgenerator": 2858,
      "sv": 2859,
      "peline": 2860,
      "}\".": 2861,
      "atform": 2862,
      "]['": 2863,
      "Ġdir": 2864,
      "SC": 2865,
      "added": 2866,
      "models": 2867,
      "Ġfeatures": 2868,
      "Ġsince": 2869,
      "Ġgenerated": 2870,
      "Model": 2871,
      "itive": 2872,
      "Load": 2873,
      "day": 2874,
      "normal": 2875,
      "={": 2876,
      "pping": 2877,
      "gments": 2878,
      "Ġemail": 2879,
      "Ġstandard": 2880,
      "02": 2881,
      "stats": 2882,
      "unit": 2883,
      "Ġvolume": 2884,
      "ĉĉĉ": 2885,
      "rule": 2886,
      "Ġallowed": 2887,
      "TYPE": 2888,
      "Ġconf": 2889,
      "style": 2890,
      "txt": 2891,
      "__['": 2892,
      "docs": 2893,
      "IO": 2894,
      "tr": 2895,
      "conds": 2896,
      "ULT": 2897,
      "Ġsix": 2898,
      "Ġvert": 2899,
      "Ġsite": 2900,
      "account": 2901,
      "Ġentity": 2902,
      "wd": 2903,
      "ferences": 2904,
      "Ġspec": 2905,
      "Ġmod": 2906,
      "Reg": 2907,
      "Ġcharacters": 2908,
      "ives": 2909,
      "Ġplugin": 2910,
      "git": 2911,
      "TION": 2912,
      "sha": 2913,
      "Ġgrid": 2914,
      "=(": 2915,
      "Ġsure": 2916,
      "Ġupdated": 2917,
      "Met": 2918,
      "Event": 2919,
      "istered": 2920,
      "Ġnamed": 2921,
      "case": 2922,
      "Ġvalidate": 2923,
      "Ġlat": 2924,
      "manager": 2925,
      "atted": 2926,
      "Ġdebug": 2927,
      "cell": 2928,
      "Ġbuffer": 2929,
      "Ġestim": 2930,
      "ls": 2931,
      "Ġbucket": 2932,
      "Ġconn": 2933,
      "Ġdistribution": 2934,
      "make": 2935,
      "Ġaccept": 2936,
      "Ġho": 2937,
      "Ġweights": 2938,
      "âĶ": 2939,
      "Ġassume": 2940,
      "Ġretry": 2941,
      "Ġsupp": 2942,
      "way": 2943,
      "ki": 2944,
      "cast": 2945,
      "Ġmain": 2946,
      "Ġchanges": 2947,
      "ĠLOG": 2948,
      "_{": 2949,
      "Ġconstruct": 2950,
      "dev": 2951,
      "chine": 2952,
      "Ġ{\"": 2953,
      "tered": 2954,
      "ĠAny": 2955,
      "24": 2956,
      "ier": 2957,
      ")),": 2958,
      "Session": 2959,
      "Ġdisable": 2960,
      "lap": 2961,
      "dest": 2962,
      "Ġrequire": 2963,
      "Ġarch": 2964,
      "exceptions": 2965,
      "Ġsegment": 2966,
      "ĠTo": 2967,
      "stdout": 2968,
      "Ġscript": 2969,
      "Ġinsert": 2970,
      "hift": 2971,
      "NT": 2972,
      "sure": 2973,
      "Ġfit": 2974,
      "HT": 2975,
      "lish": 2976,
      "Ġmost": 2977,
      "Ġdefinition": 2978,
      "ĠAttribute": 2979,
      "licit": 2980,
      "Ġdone": 2981,
      "ctions": 2982,
      "ĠArguments": 2983,
      "sess": 2984,
      "Ġstorage": 2985,
      "ire": 2986,
      "ĠXML": 2987,
      "bot": 2988,
      "Ġour": 2989,
      "Ġscal": 2990,
      "okup": 2991,
      "Ġwhat": 2992,
      "hing": 2993,
      "ango": 2994,
      "Ġplace": 2995,
      "depend": 2996,
      "indices": 2997,
      "Ġresp": 2998,
      "foo": 2999,
      "ton": 3000,
      "Ġ'\\": 3001,
      "Ġinternal": 3002,
      "position": 3003,
      "ground": 3004,
      "An": 3005,
      "total": 3006,
      "inis": 3007,
      "Ġopts": 3008,
      "ĠĠĠĠčĊ": 3009,
      "dataset": 3010,
      "true": 3011,
      "SO": 3012,
      "ĠUp": 3013,
      "ision": 3014,
      "/{": 3015,
      "patch": 3016,
      "201": 3017,
      "thread": 3018,
      "lat": 3019,
      "scale": 3020,
      "Ġverbose": 3021,
      "Process": 3022,
      "Info": 3023,
      "fra": 3024,
      "height": 3025,
      "opt": 3026,
      "hes": 3027,
      "compon": 3028,
      "show": 3029,
      "just": 3030,
      "ĠDo": 3031,
      "timestamp": 3032,
      "asure": 3033,
      "Ġ(\"": 3034,
      "cut": 3035,
      "Ġtokens": 3036,
      "Ġfolder": 3037,
      "Ġsuccessful": 3038,
      "import": 3039,
      "argument": 3040,
      "socket": 3041,
      "cessed": 3042,
      "Ġ\".": 3043,
      "els": 3044,
      "qual": 3045,
      "package": 3046,
      "Ġbit": 3047,
      "quences": 3048,
      "Ġclose": 3049,
      "cording": 3050,
      "formed": 3051,
      "Ġdownload": 3052,
      "Ġcursor": 3053,
      "uring": 3054,
      "Ġlower": 3055,
      "Per": 3056,
      "FAULT": 3057,
      "ulation": 3058,
      "loy": 3059,
      "used": 3060,
      "poch": 3061,
      "Ġ{}\".": 3062,
      "sl": 3063,
      "Ġfix": 3064,
      "lig": 3065,
      "sired": 3066,
      "proxy": 3067,
      "20": 3068,
      "serv": 3069,
      "Ġpandas": 3070,
      "Ġ[\"": 3071,
      "US": 3072,
      "Valid": 3073,
      "Ġpix": 3074,
      "classes": 3075,
      "Ġinputs": 3076,
      "Trans": 3077,
      "angle": 3078,
      "chedule": 3079,
      "Ġrecords": 3080,
      "Ġsetting": 3081,
      "warn": 3082,
      "async": 3083,
      "greg": 3084,
      "Ġpermission": 3085,
      "Ġdisk": 3086,
      "seconds": 3087,
      "Ġrest": 3088,
      "window": 3089,
      "Ġart": 3090,
      "actions": 3091,
      "ynam": 3092,
      "Py": 3093,
      "Ġskip": 3094,
      "\"],": 3095,
      "any": 3096,
      "Ġcho": 3097,
      "Ġalways": 3098,
      "Ġvia": 3099,
      "Ġdestination": 3100,
      "alle": 3101,
      "chunk": 3102,
      "des": 3103,
      "ivity": 3104,
      "Ġactive": 3105,
      "exit": 3106,
      "Ġevalu": 3107,
      "esc": 3108,
      "cle": 3109,
      "uting": 3110,
      "ĠĠĠĠĠĠĠĠĠĠĠĠĠĠĠĠĠĠĠĠĠĠĠĠĠĠĠĠĠĠĠĠĠ": 3111,
      "ometry": 3112,
      "Ġuses": 3113,
      "desc": 3114,
      "Ġlibrary": 3115,
      "'][": 3116,
      "Ġannot": 3117,
      "cheme": 3118,
      "series": 3119,
      "eps": 3120,
      "region": 3121,
      "pare": 3122,
      "Ġtri": 3123,
      "Ġmetric": 3124,
      "Ġlists": 3125,
      "Ġcharacter": 3126,
      "Ġdecorator": 3127,
      "late": 3128,
      "Ġthose": 3129,
      "ED": 3130,
      "Item": 3131,
      "hod": 3132,
      "Update": 3133,
      "bl": 3134,
      "ories": 3135,
      "ĠString": 3136,
      "Ġanother": 3137,
      "features": 3138,
      "Instance": 3139,
      "Ġselected": 3140,
      "ĠOtherwise": 3141,
      "Ġinterval": 3142,
      "Ġ',": 3143,
      "ithub": 3144,
      "vars": 3145,
      "ĠImp": 3146,
      "Ġparts": 3147,
      "tf": 3148,
      "ĠBy": 3149,
      "execute": 3150,
      "Ġids": 3151,
      "Ġ201": 3152,
      "Ġmeans": 3153,
      "train": 3154,
      "Ġctx": 3155,
      "Ġcomb": 3156,
      "cessary": 3157,
      "Ġlanguage": 3158,
      "hist": 3159,
      "Context": 3160,
      "properties": 3161,
      "sequence": 3162,
      "tools": 3163,
      "loaded": 3164,
      "peri": 3165,
      "Ġang": 3166,
      "Parser": 3167,
      "Ġautomat": 3168,
      "IP": 3169,
      "Ġgroups": 3170,
      "Ġtmp": 3171,
      "Ġactual": 3172,
      "cer": 3173,
      "https": 3174,
      "AM": 3175,
      "Ġway": 3176,
      "Ġbox": 3177,
      "board": 3178,
      "asic": 3179,
      "initial": 3180,
      "Field": 3181,
      "Ġproxy": 3182,
      "Ġaccording": 3183,
      "umps": 3184,
      "Ġstats": 3185,
      "EX": 3186,
      "Ġradi": 3187,
      "33": 3188,
      "ĠPer": 3189,
      "Ġcontrol": 3190,
      "cores": 3191,
      "50": 3192,
      "Ġwere": 3193,
      "Ġcomment": 3194,
      ">`": 3195,
      "card": 3196,
      "Ġdepth": 3197,
      "validate": 3198,
      "Ġtensor": 3199,
      "ants": 3200,
      "plotlib": 3201,
      "Find": 3202,
      "depth": 3203,
      "ĠMe": 3204,
      "Ġxml": 3205,
      "Ġweb": 3206,
      "ES": 3207,
      "sted": 3208,
      "tmp": 3209,
      "sig": 3210,
      "Ġtr": 3211,
      "Ġcompute": 3212,
      "Imp": 3213,
      "ilar": 3214,
      "ĠRuntime": 3215,
      "Ġregister": 3216,
      "cision": 3217,
      "blem": 3218,
      "jobs": 3219,
      "Ġ100": 3220,
      "ĠAs": 3221,
      "Ġmodels": 3222,
      "Ġfn": 3223,
      "Pre": 3224,
      "Text": 3225,
      "Result": 3226,
      "Ġprior": 3227,
      "ighb": 3228,
      "ĠTime": 3229,
      "Ġagainst": 3230,
      "Ġoverride": 3231,
      "AS": 3232,
      "ĠZ": 3233,
      "Ġcalls": 3234,
      "loop": 3235,
      "Ġinstall": 3236,
      "Ġalign": 3237,
      "empty": 3238,
      "Message": 3239,
      "email": 3240,
      "come": 3241,
      "Argument": 3242,
      "Ġflags": 3243,
      "ws": 3244,
      "'}": 3245,
      "Ġda": 3246,
      "Ġ'_": 3247,
      "scope": 3248,
      "Ġamount": 3249,
      "upper": 3250,
      "Ġinit": 3251,
      "API": 3252,
      "spect": 3253,
      "Ġwrapper": 3254,
      "Ġraised": 3255,
      "AP": 3256,
      "Ġscore": 3257,
      "cip": 3258,
      "ĠEn": 3259,
      "utable": 3260,
      "ĠNo": 3261,
      "pair": 3262,
      "attrs": 3263,
      "non": 3264,
      "cing": 3265,
      "Ġpairs": 3266,
      "pid": 3267,
      "tom": 3268,
      "Ġfast": 3269,
      "Ġreq": 3270,
      "conn": 3271,
      "Ġstdout": 3272,
      "ness": 3273,
      "rence": 3274,
      "Ġrecurs": 3275,
      "Ġnet": 3276,
      "jango": 3277,
      "ters": 3278,
      "words": 3279,
      "leep": 3280,
      "Series": 3281,
      "ends": 3282,
      "Ġunits": 3283,
      "Ġfra": 3284,
      "irt": 3285,
      "Ġmany": 3286,
      "User": 3287,
      "ilder": 3288,
      "Query": 3289,
      "Ġlock": 3290,
      "PC": 3291,
      "mag": 3292,
      "Ġbest": 3293,
      "Gets": 3294,
      "Ġalpha": 3295,
      "ĠCh": 3296,
      "rep": 3297,
      "ilt": 3298,
      "Ġseq": 3299,
      "Ġimages": 3300,
      "Ġarrays": 3301,
      "Ġperiod": 3302,
      "Ġtrace": 3303,
      "reference": 3304,
      "stderr": 3305,
      "Ġutils": 3306,
      "olver": 3307,
      "Ġpredi": 3308,
      "Ġday": 3309,
      "ĠAttributeError": 3310,
      "uuid": 3311,
      "dimension": 3312,
      "Ġdesired": 3313,
      "Ġcurrently": 3314,
      "google": 3315,
      ".*": 3316,
      "dot": 3317,
      "zeros": 3318,
      "ĠUser": 3319,
      "Call": 3320,
      "Ġpop": 3321,
      "Ġstates": 3322,
      "vision": 3323,
      "Ġrender": 3324,
      "Ġprotocol": 3325,
      "Ġauto": 3326,
      "eric": 3327,
      "Ġrole": 3328,
      "feature": 3329,
      "Ġaxes": 3330,
      "Ġdescrib": 3331,
      "Dis": 3332,
      "sessment": 3333,
      "ient": 3334,
      "witch": 3335,
      "ĠOnly": 3336,
      "Ġterm": 3337,
      "dio": 3338,
      "eter": 3339,
      "collection": 3340,
      "\"])": 3341,
      "KE": 3342,
      "Ġpool": 3343,
      "Ġexit": 3344,
      "Ġfilters": 3345,
      "Ġsubject": 3346,
      "Ġclick": 3347,
      "Ġresources": 3348,
      "cimal": 3349,
      "paces": 3350,
      "dates": 3351,
      "head": 3352,
      "Ġrepo": 3353,
      "identifier": 3354,
      "adding": 3355,
      "Ġcommit": 3356,
      "ĠNotes": 3357,
      "lies": 3358,
      "Ġminimum": 3359,
      "atten": 3360,
      "Ġprobab": 3361,
      "ĠAlso": 3362,
      "Ġleast": 3363,
      "Ġlon": 3364,
      "Creates": 3365,
      "ĠIndex": 3366,
      "Base": 3367,
      "Ġ{}'.": 3368,
      "Ġstyle": 3369,
      "folder": 3370,
      "Ġsig": 3371,
      "aly": 3372,
      "ane": 3373,
      "Ġwidget": 3374,
      "namespace": 3375,
      "Ġsm": 3376,
      "alculate": 3377,
      "Ġfactor": 3378,
      "Ġshort": 3379,
      "osid": 3380,
      "repo": 3381,
      "gative": 3382,
      "fast": 3383,
      "Ġwarn": 3384,
      "Ġalgorithm": 3385,
      "attributes": 3386,
      "cated": 3387,
      "Iter": 3388,
      "Ġnecessary": 3389,
      "ĠRuntimeError": 3390,
      "ĠĠĠĠĠĠĠĠĠĠĠĠĠĠĠĠĠĠĠĠĠĠĠĠĠĠĠĠĠĠĠĠĠĠ": 3391,
      "Ġcondition": 3392,
      "transform": 3393,
      "TER": 3394,
      "rompt": 3395,
      "vm": 3396,
      "Ġoccur": 3397,
      "Optional": 3398,
      "af": 3399,
      "Ġclasses": 3400,
      "Ġmulti": 3401,
      "Ġlar": 3402,
      "az": 3403,
      "Ġsur": 3404,
      "Exec": 3405,
      "bove": 3406,
      "Ġchanged": 3407,
      "Ġcommands": 3408,
      "metric": 3409,
      "bits": 3410,
      "Ġregistered": 3411,
      "Sub": 3412,
      ".'": 3413,
      "support": 3414,
      "ĠOS": 3415,
      "########": 3416,
      "ifact": 3417,
      "wrap": 3418,
      "roller": 3419,
      "GER": 3420,
      "insert": 3421,
      "fit": 3422,
      "Ġ12": 3423,
      "ectors": 3424,
      "TR": 3425,
      "34": 3426,
      "As": 3427,
      "priate": 3428,
      "Ġissue": 3429,
      "ctx": 3430,
      "quire": 3431,
      "Ġnumbers": 3432,
      "ather": 3433,
      "csv": 3434,
      "Ġmag": 3435,
      "ĠConvert": 3436,
      "Generate": 3437,
      "null": 3438,
      "Inter": 3439,
      "Ġfetch": 3440,
      "Ġexclude": 3441,
      "100": 3442,
      "Ġpacket": 3443,
      "Ġcommon": 3444,
      "Bo": 3445,
      "Ġder": 3446,
      "Ġensure": 3447,
      "Ġ'{}": 3448,
      "ĠQu": 3449,
      "eger": 3450,
      "ĠOr": 3451,
      "children": 3452,
      "Ġimplemented": 3453,
      "Ġsets": 3454,
      "encoding": 3455,
      "ĠSpe": 3456,
      "hex": 3457,
      "Ġneeds": 3458,
      "URL": 3459,
      "Ġht": 3460,
      "Ġbro": 3461,
      "leg": 3462,
      "Ġloaded": 3463,
      "Ġtuples": 3464,
      "ze": 3465,
      "Ent": 3466,
      "hook": 3467,
      "Ġzone": 3468,
      "================": 3469,
      "NO": 3470,
      "Ġsupplied": 3471,
      "Ġusers": 3472,
      "ower": 3473,
      "Ġprop": 3474,
      "Ġindent": 3475,
      "19": 3476,
      "Ġbl": 3477,
      "irtual": 3478,
      "Group": 3479,
      "parts": 3480,
      "30": 3481,
      "author": 3482,
      "Ġtrig": 3483,
      "Ġtake": 3484,
      "VER": 3485,
      "ĠValid": 3486,
      "rec": 3487,
      "loads": 3488,
      "je": 3489,
      "Ġtx": 3490,
      "ified": 3491,
      "Ġpartic": 3492,
      "Ġpublic": 3493,
      "Ġgre": 3494,
      "Ġappropriate": 3495,
      "cb": 3496,
      "document": 3497,
      "ION": 3498,
      "atio": 3499,
      "amily": 3500,
      "Ġdirection": 3501,
      "Ġalong": 3502,
      "convert": 3503,
      "__,": 3504,
      "ampling": 3505,
      "ificate": 3506,
      "Ġsymbol": 3507,
      "Ġetc": 3508,
      "Al": 3509,
      "Ġautomatically": 3510,
      "utput": 3511,
      "Ġalias": 3512,
      "ases": 3513,
      "('\\": 3514,
      "Ġstarting": 3515,
      "attribute": 3516,
      "Ġconverted": 3517,
      "parameter": 3518,
      "year": 3519,
      "allow": 3520,
      "hip": 3521,
      "Handler": 3522,
      "cert": 3523,
      "('/": 3524,
      "Class": 3525,
      "ĠIO": 3526,
      "80": 3527,
      "logging": 3528,
      "}.": 3529,
      "Ġhigh": 3530,
      "Ġdirectly": 3531,
      "Ġproduct": 3532,
      "Ġincluded": 3533,
      "âĶĢ": 3534,
      "Ġfailure": 3535,
      "Ġcomponents": 3536,
      "Ġ-----": 3537,
      "ĠYou": 3538,
      "utation": 3539,
      "15": 3540,
      "center": 3541,
      "idden": 3542,
      "TO": 3543,
      "payload": 3544,
      "lemented": 3545,
      "-+-+-+-+-+-+-+-+": 3546,
      "gers": 3547,
      "score": 3548,
      "Ġfuture": 3549,
      "Remove": 3550,
      "Build": 3551,
      "]),": 3552,
      "cla": 3553,
      "ĠCol": 3554,
      "Ġident": 3555,
      ":%": 3556,
      "report": 3557,
      "By": 3558,
      "Ġmath": 3559,
      "periment": 3560,
      "ATH": 3561,
      "commit": 3562,
      "Ġjoin": 3563,
      "Ġinstalled": 3564,
      "Ġctypes": 3565,
      "Ġexecute": 3566,
      "lis": 3567,
      "Ġchildren": 3568,
      "curity": 3569,
      "rapped": 3570,
      "ĠRE": 3571,
      "ense": 3572,
      "ugins": 3573,
      "Start": 3574,
      "Ġfill": 3575,
      "Ġencoded": 3576,
      "Ġmember": 3577,
      "(['": 3578,
      "buf": 3579,
      "Format": 3580,
      "SP": 3581,
      "lack": 3582,
      "ĠConfig": 3583,
      "radi": 3584,
      "_,": 3585,
      "MO": 3586,
      "global": 3587,
      "yg": 3588,
      "ars": 3589,
      "Ġpartition": 3590,
      "Ġfrequency": 3591,
      "ressed": 3592,
      "IL": 3593,
      "interval": 3594,
      "dumps": 3595,
      "Ġmerge": 3596,
      "ival": 3597,
      "Ġapplied": 3598,
      "lper": 3599,
      "tore": 3600,
      "Ġcat": 3601,
      "Ġtrack": 3602,
      "edge": 3603,
      "Ġker": 3604,
      "Ġignored": 3605,
      "Ġexport": 3606,
      "Ġcached": 3607,
      "Ġsummary": 3608,
      ",)": 3609,
      "Ġplt": 3610,
      "Table": 3611,
      "Ġretrieve": 3612,
      "register": 3613,
      "Man": 3614,
      "clean": 3615,
      "scriptor": 3616,
      "ru": 3617,
      "ensity": 3618,
      "Ġsuffix": 3619,
      "Ġexceptions": 3620,
      "Ġoptim": 3621,
      "Ġabsolute": 3622,
      "Ġprodu": 3623,
      "Gener": 3624,
      "pose": 3625,
      "Ġcalling": 3626,
      "bucket": 3627,
      "unicode": 3628,
      "Ġwell": 3629,
      "github": 3630,
      "where": 3631,
      "Ġdelta": 3632,
      "ĠAll": 3633,
      "Ġdimensions": 3634,
      "resses": 3635,
      "ĠApp": 3636,
      "ene": 3637,
      "Ġmedi": 3638,
      "Ġeffect": 3639,
      "ĠCan": 3640,
      "lint": 3641,
      "Ġrelease": 3642,
      "cols": 3643,
      "Ġlookup": 3644,
      "ength": 3645,
      "Ġrate": 3646,
      "Ġonce": 3647,
      "Ġpolicy": 3648,
      "Ġbackend": 3649,
      "dt": 3650,
      "Ġ200": 3651,
      "Ġreceived": 3652,
      "sid": 3653,
      "Or": 3654,
      "Ġdt": 3655,
      "environ": 3656,
      "variables": 3657,
      "termine": 3658,
      "Ġ):": 3659,
      "dims": 3660,
      "Ġvo": 3661,
      "ĠInvalid": 3662,
      "Ġabove": 3663,
      "Ġformatted": 3664,
      "remote": 3665,
      "erature": 3666,
      "DEFAULT": 3667,
      "Ġoperator": 3668,
      "Ġ(:": 3669,
      "norm": 3670,
      "auto": 3671,
      "trace": 3672,
      "lem": 3673,
      "served": 3674,
      "Ġtransl": 3675,
      "Ġwords": 3676,
      "Write": 3677,
      "events": 3678,
      "fetch": 3679,
      "Ġfa": 3680,
      "Ġrot": 3681,
      "lers": 3682,
      "ones": 3683,
      "pool": 3684,
      "ĠEach": 3685,
      "Ġmer": 3686,
      "Ġrepository": 3687,
      "required": 3688,
      "Ġhtml": 3689,
      "Ġconfi": 3690,
      "Ġwritten": 3691,
      "`:": 3692,
      "55": 3693,
      "uter": 3694,
      "Ġreason": 3695,
      "ĠĠĠĠĠĠĠĠĠĠĠĠĠĠĠĠĠĠĠĠĠĠĠĠĠĠĠĠĠĠĠĠĠĠĠĠ": 3696,
      "letion": 3697,
      "site": 3698,
      "Ġduring": 3699,
      "ĠBo": 3700,
      "cesses": 3701,
      "Ġthreshold": 3702,
      "container": 3703,
      "atches": 3704,
      "peration": 3705,
      "Ġupper": 3706,
      "sens": 3707,
      "\"))": 3708,
      "SH": 3709,
      "rain": 3710,
      "Ġmodules": 3711,
      "oken": 3712,
      "ulate": 3713,
      "Ġmanager": 3714,
      "inition": 3715,
      "alk": 3716,
      "UR": 3717,
      "cursor": 3718,
      "enu": 3719,
      "sq": 3720,
      "Map": 3721,
      "dirname": 3722,
      "ploy": 3723,
      "factor": 3724,
      "Ġedges": 3725,
      "expected": 3726,
      "Ġdetermin": 3727,
      "ons": 3728,
      "Ġuri": 3729,
      "confi": 3730,
      "states": 3731,
      "lab": 3732,
      "unique": 3733,
      "BU": 3734,
      "Ġanalysis": 3735,
      "resources": 3736,
      "stru": 3737,
      "endswith": 3738,
      "Ġprogress": 3739,
      "NS": 3740,
      "storage": 3741,
      "Ġdraw": 3742,
      "cluster": 3743,
      "Auth": 3744,
      "Ġredu": 3745,
      "arr": 3746,
      "fname": 3747,
      "Ġsql": 3748,
      "cab": 3749,
      "Ġattempt": 3750,
      "help": 3751,
      "lev": 3752,
      "stants": 3753,
      "cfg": 3754,
      "zero": 3755,
      "Te": 3756,
      "Ġ\"{": 3757,
      "cc": 3758,
      "}{": 3759,
      "Ġbranch": 3760,
      "vl": 3761,
      "Ġregex": 3762,
      "Ġchecks": 3763,
      "TH": 3764,
      "</": 3765,
      "Ġvalidation": 3766,
      "Ġroute": 3767,
      "als": 3768,
      "Ġsaved": 3769,
      "heet": 3770,
      "mapping": 3771,
      "units": 3772,
      "Ġyear": 3773,
      "LOG": 3774,
      "Ġbind": 3775,
      "light": 3776,
      "Ġtakes": 3777,
      "__)": 3778,
      "Sh": 3779,
      "GET": 3780,
      "logy": 3781,
      "std": 3782,
      "defaults": 3783,
      "Ġcredentials": 3784,
      "Ġscan": 3785,
      "....": 3786,
      "For": 3787,
      "ili": 3788,
      "ĠDE": 3789,
      "Ġverify": 3790,
      "sole": 3791,
      "oo": 3792,
      "}'": 3793,
      "andidate": 3794,
      "uch": 3795,
      "changed": 3796,
      "Ġconnected": 3797,
      "tokens": 3798,
      "okie": 3799,
      "({'": 3800,
      "()):": 3801,
      "imer": 3802,
      "modules": 3803,
      "FO": 3804,
      "ĠĠĠĠĠĠĠĠĠĠĠĠĠĠĠĠĠĠĠĠĠĠĠĠĠĠĠĠĠĠĠĠĠĠĠĠĠĠĠ": 3805,
      "Ġcompat": 3806,
      "Ġtermin": 3807,
      "Ġappend": 3808,
      "\"),": 3809,
      "14": 3810,
      "Ġdetermine": 3811,
      "Ġmak": 3812,
      "vidual": 3813,
      "force": 3814,
      "ality": 3815,
      "alias": 3816,
      "vide": 3817,
      "Ġknown": 3818,
      "osition": 3819,
      "undle": 3820,
      "ĠMet": 3821,
      "/%": 3822,
      "=%": 3823,
      "bind": 3824,
      "Ġexecution": 3825,
      "Ġversionadded": 3826,
      "example": 3827,
      "mediate": 3828,
      "Ġsimple": 3829,
      "Ġiterator": 3830,
      "Ġupload": 3831,
      "Hel": 3832,
      "times": 3833,
      "ied": 3834,
      "writ": 3835,
      "grade": 3836,
      "Ġsens": 3837,
      "prop": 3838,
      "sql": 3839,
      "Ġfname": 3840,
      "QU": 3841,
      "Ġwhose": 3842,
      "Ġshell": 3843,
      "application": 3844,
      "secret": 3845,
      "Ġside": 3846,
      "ĠInput": 3847,
      "tail": 3848,
      "align": 3849,
      "istics": 3850,
      "Ġkind": 3851,
      "KEY": 3852,
      "Ġorigin": 3853,
      "Ġcategory": 3854,
      "member": 3855,
      "effici": 3856,
      "Ġdeleted": 3857,
      "Di": 3858,
      "nan": 3859,
      "Ġdeco": 3860,
      "Ġ},": 3861,
      "Le": 3862,
      "Ġprivate": 3863,
      "ĠTh": 3864,
      "ntax": 3865,
      "Ġsetup": 3866,
      "Ġ_,": 3867,
      "Ġkernel": 3868,
      "ND": 3869,
      "Ġduplic": 3870,
      "('%": 3871,
      "Do": 3872,
      "Ġmachine": 3873,
      "CS": 3874,
      "()))": 3875,
      "ĠTrans": 3876,
      "Ġflow": 3877,
      "ĠUni": 3878,
      "Ġhead": 3879,
      "Ġspecification": 3880,
      "ĠNO": 3881,
      "Ġ16": 3882,
      "Ġsequences": 3883,
      "ĠĠĠĠĠĠĠĠĠĠĠĠĠĠĠĠĠĠĠĠĠĠĠĠĠĠĠĠĠĠĠĠĠĠĠĠĠ": 3884,
      "Ġ'--": 3885,
      "real": 3886,
      "orary": 3887,
      "display": 3888,
      "Connection": 3889,
      "release": 3890,
      "lookup": 3891,
      "uble": 3892,
      "Ġcy": 3893,
      "[:-": 3894,
      "Spe": 3895,
      "Ġtyp": 3896,
      "Ġreverse": 3897,
      "long": 3898,
      "edges": 3899,
      "Ġsubprocess": 3900,
      "Ġavoid": 3901,
      "Image": 3902,
      "havi": 3903,
      "ifier": 3904,
      "PRO": 3905,
      "filepath": 3906,
      "Ġauthentication": 3907,
      "clear": 3908,
      "Ġrelated": 3909,
      "ivalent": 3910,
      "include": 3911,
      "Ġinside": 3912,
      "jection": 3913,
      "install": 3914,
      "ĠHTML": 3915,
      "Ġreset": 3916,
      "agent": 3917,
      "ĠURI": 3918,
      "tool": 3919,
      "ĠObject": 3920,
      "Ġpylint": 3921,
      "HTTP": 3922,
      "cii": 3923,
      "NotFound": 3924,
      "Mo": 3925,
      "_.": 3926,
      "gories": 3927,
      "master": 3928,
      "Sets": 3929,
      "Ġworks": 3930,
      "'re": 3931,
      "ypes": 3932,
      "Ġidentifi": 3933,
      "(\"%": 3934,
      "flags": 3935,
      "clus": 3936,
      "()[": 3937,
      "iew": 3938,
      "Ġhy": 3939,
      "endpoint": 3940,
      "Ġinv": 3941,
      "extension": 3942,
      "Ġfmt": 3943,
      "Ġsnapshot": 3944,
      "ĠRead": 3945,
      "Ġ$": 3946,
      "policy": 3947,
      "tty": 3948,
      "56": 3949,
      "Ġslice": 3950,
      "coords": 3951,
      "Ġpick": 3952,
      "maining": 3953,
      "Ġeven": 3954,
      "Ġbegin": 3955,
      "Ġmight": 3956,
      "distance": 3957,
      "Input": 3958,
      "weights": 3959,
      "atory": 3960,
      "Resource": 3961,
      "ĠDictionary": 3962,
      "Ġstatement": 3963,
      "Ġarchive": 3964,
      "Ġcenter": 3965,
      "Ġmodified": 3966,
      "sep": 3967,
      "pter": 3968,
      "ancel": 3969,
      "interface": 3970,
      "Ġparticular": 3971,
      "Ġrespect": 3972,
      "Ġhex": 3973,
      "Ġhparams": 3974,
      "ĠPre": 3975,
      "Ġfinally": 3976,
      "Graph": 3977,
      "ention": 3978,
      "Ġenabled": 3979,
      "olved": 3980,
      "Content": 3981,
      "WS": 3982,
      "Ġsto": 3983,
      "dify": 3984,
      "lim": 3985,
      "Ġcalculate": 3986,
      "ĠArray": 3987,
      "Ġattrs": 3988,
      "Ġembed": 3989,
      "rf": 3990,
      "ĠDict": 3991,
      "CL": 3992,
      "cap": 3993,
      "Ġscalar": 3994,
      "Ġbar": 3995,
      "Ġtab": 3996,
      "','": 3997,
      "faces": 3998,
      "Ġtasks": 3999,
      "Ġput": 4000,
      "acy": 4001,
      "gb": 4002,
      "Ġdocumentation": 4003,
      "Status": 4004,
      "Ġuseful": 4005,
      "Ġmaster": 4006,
      "Ġdetect": 4007,
      "Ġbits": 4008,
      "ERR": 4009,
      "Default": 4010,
      "Ġreturning": 4011,
      "byte": 4012,
      "Ġcf": 4013,
      "CK": 4014,
      "CP": 4015,
      "IM": 4016,
      "fill": 4017,
      "Ġexpect": 4018,
      "Ġproblem": 4019,
      "period": 4020,
      "Ġusage": 4021,
      "dr": 4022,
      "mer": 4023,
      "inputs": 4024,
      "Ġmonth": 4025,
      "mitted": 4026,
      "Ġduration": 4027,
      "Ġhook": 4028,
      "HE": 4029,
      "Ġstderr": 4030,
      "UP": 4031,
      "Ġagent": 4032,
      "Ġfp": 4033,
      "ibility": 4034,
      "200": 4035,
      "Ġnested": 4036,
      "ĠPo": 4037,
      "Ġconstraint": 4038,
      "safe": 4039,
      "Filter": 4040,
      "Ġangle": 4041,
      "Ġfont": 4042,
      "Ġresulting": 4043,
      "}\\": 4044,
      "role": 4045,
      "Ġconfigured": 4046,
      "success": 4047,
      "database": 4048,
      "ĠRemove": 4049,
      "Ġ\"\\": 4050,
      "Tree": 4051,
      "miss": 4052,
      "plugin": 4053,
      "Ġyaml": 4054,
      "ynch": 4055,
      "www": 4056,
      "Ġpkg": 4057,
      "Ġfeed": 4058,
      "allel": 4059,
      "Ġown": 4060,
      "Ġprogram": 4061,
      "Ġfalse": 4062,
      "codes": 4063,
      "extract": 4064,
      "img": 4065,
      "ams": 4066,
      "admin": 4067,
      "ĠMake": 4068,
      "ĠReg": 4069,
      "Ġspecial": 4070,
      "specifi": 4071,
      "Ġtraining": 4072,
      "PATH": 4073,
      "liance": 4074,
      "Ġexact": 4075,
      "ĠĠĠĠĠĠĠĠĠĠĠĠĠĠĠĠĠĠĠĠĠĠĠĠĠĠĠĠĠĠĠĠĠĠĠĠĠĠĠĠ": 4076,
      "Ġmeasure": 4077,
      "Ġprovide": 4078,
      "partition": 4079,
      "counts": 4080,
      "property": 4081,
      "Ġmove": 4082,
      "DS": 4083,
      "fd": 4084,
      "vs": 4085,
      "ignore": 4086,
      "apped": 4087,
      "ogram": 4088,
      "rl": 4089,
      "dic": 4090,
      "Service": 4091,
      "Ġdiction": 4092,
      "Ġ[[": 4093,
      "Ġauthorization": 4094,
      "uff": 4095,
      "ĠNode": 4096,
      "He": 4097,
      "Given": 4098,
      "Ġ((": 4099,
      "IG": 4100,
      "-%": 4101,
      "changes": 4102,
      "Ġimplementation": 4103,
      "memory": 4104,
      "bed": 4105,
      "tz": 4106,
      "Ġstd": 4107,
      "Ġbelow": 4108,
      "Ġ``'": 4109,
      "Ġproper": 4110,
      "Ġsources": 4111,
      "Adds": 4112,
      "Ġwarnings": 4113,
      "sm": 4114,
      "Ġyet": 4115,
      "amma": 4116,
      "summary": 4117,
      "Ġworking": 4118,
      "sd": 4119,
      "Th": 4120,
      "assign": 4121,
      "Ġmatplotlib": 4122,
      "ATION": 4123,
      "pb": 4124,
      "Ġwarning": 4125,
      "tab": 4126,
      "Ġdataframe": 4127,
      "generate": 4128,
      "__.": 4129,
      "ni": 4130,
      "relation": 4131,
      "basename": 4132,
      "`)": 4133,
      "Ġexplicit": 4134,
      "uous": 4135,
      "alpha": 4136,
      "'](": 4137,
      "mplates": 4138,
      "fmt": 4139,
      "lin": 4140,
      "Ġ,": 4141,
      "Ġlogin": 4142,
      "Ġfigure": 4143,
      "custom": 4144,
      "after": 4145,
      "Ġtile": 4146,
      "ĠOpen": 4147,
      "Ġprocessing": 4148,
      "18": 4149,
      "ĠĠĠĠĠĠĠĠĠĠĠĠĠĠĠĠĠĠĠĠĠĠĠĠĠĠĠĠĠĠĠĠĠĠĠĠĠĠ": 4150,
      "Ġallows": 4151,
      "Ġincre": 4152,
      "Ġrules": 4153,
      "Ġmesh": 4154,
      "Ġ\\\\": 4155,
      "Ġitself": 4156,
      "Ġclear": 4157,
      "ĠId": 4158,
      "Ġkw": 4159,
      "ulti": 4160,
      "cipy": 4161,
      "Ġattach": 4162,
      "ynchron": 4163,
      "13": 4164,
      "Ġimg": 4165,
      "Ġvirtual": 4166,
      "Ġpercent": 4167,
      "Ġsimilar": 4168,
      "Stream": 4169,
      "web": 4170,
      "flag": 4171,
      "ough": 4172,
      "Ġcap": 4173,
      "Ġexpi": 4174,
      "tact": 4175,
      "Ġpipeline": 4176,
      "kind": 4177,
      "cd": 4178,
      "Ġ\"/": 4179,
      "Ġcoordinate": 4180,
      "Manager": 4181,
      "sorted": 4182,
      "Ġversions": 4183,
      "Clo": 4184,
      "On": 4185,
      "ĠRequest": 4186,
      "FILE": 4187,
      "Ġrank": 4188,
      "(\"\\": 4189,
      "Ġchannels": 4190,
      "oms": 4191,
      "Ġregistry": 4192,
      "ropy": 4193,
      "apply": 4194,
      "Ġregular": 4195,
      "aving": 4196,
      "ĠCall": 4197,
      "Ġincluding": 4198,
      "moot": 4199,
      "signal": 4200,
      "volume": 4201,
      "Ġworker": 4202,
      "Ġnone": 4203,
      "Function": 4204,
      "Ġasset": 4205,
      "andatory": 4206,
      "ression": 4207,
      "moves": 4208,
      "widget": 4209,
      "retry": 4210,
      "VAL": 4211,
      "Ġvariant": 4212,
      "Delete": 4213,
      "Ġsteps": 4214,
      "symbol": 4215,
      "Size": 4216,
      "Ġoutputs": 4217,
      "Ġfilepath": 4218,
      "rowser": 4219,
      "wh": 4220,
      "expr": 4221,
      "Ġarea": 4222,
      "Ġdot": 4223,
      "Ġprovider": 4224,
      "otential": 4225,
      "Ġcounter": 4226,
      "stit": 4227,
      "ĠSQL": 4228,
      "RA": 4229,
      "Ġpackages": 4230,
      "Ġmetrics": 4231,
      "ĠIDs": 4232,
      "60": 4233,
      "Ġcollect": 4234,
      "Ġ[(": 4235,
      "aged": 4236,
      "indows": 4237,
      "abel": 4238,
      "Ġoperations": 4239,
      "ĠCommand": 4240,
      "Link": 4241,
      "fail": 4242,
      "Ġblocks": 4243,
      "mac": 4244,
      "most": 4245,
      "defined": 4246,
      "Ġpers": 4247,
      "gree": 4248,
      "Extract": 4249,
      "language": 4250,
      "Ġindicating": 4251,
      "'\\": 4252,
      "sumer": 4253,
      "22": 4254,
      "ĠDis": 4255,
      "segment": 4256,
      "âĶĢâĶĢ": 4257,
      "ptions": 4258,
      "Ġrequires": 4259,
      "sleep": 4260,
      "Ġpower": 4261,
      "Ġnegative": 4262,
      "crypted": 4263,
      "umb": 4264,
      "Ġoverwrite": 4265,
      "ĠFind": 4266,
      "{}'.": 4267,
      "protocol": 4268,
      "Ġlet": 4269,
      "xx": 4270,
      "`):": 4271,
      "dat": 4272,
      "Ġnotification": 4273,
      "icro": 4274,
      "Store": 4275,
      "ĠCont": 4276,
      "yaml": 4277,
      "Ġretrie": 4278,
      "inished": 4279,
      "Send": 4280,
      "Ġless": 4281,
      "Ġcounts": 4282,
      "Ġdat": 4283,
      "Ġtoo": 4284,
      "Ġconsist": 4285,
      "From": 4286,
      "Ġprocessed": 4287,
      "Ġredirect": 4288,
      "verbose": 4289,
      "note": 4290,
      "Count": 4291,
      "MS": 4292,
      "pg": 4293,
      "ration": 4294,
      "sim": 4295,
      "Version": 4296,
      "Ġdependencies": 4297,
      "Ġbehavi": 4298,
      "rb": 4299,
      "Ġenable": 4300,
      "win": 4301,
      "ĠTensor": 4302,
      "Ġmembers": 4303,
      "Number": 4304,
      "Ġ-=": 4305,
      "login": 4306,
      "ife": 4307,
      "Ġstill": 4308,
      "Ġloc": 4309,
      "ui": 4310,
      "ilities": 4311,
      "filters": 4312,
      "AGE": 4313,
      "ural": 4314,
      "Ġquant": 4315,
      "ĠHand": 4316,
      "Ġindividual": 4317,
      "velo": 4318,
      "Record": 4319,
      "Ġcreating": 4320,
      "(-": 4321,
      "download": 4322,
      "17": 4323,
      "Ġ~": 4324,
      "xim": 4325,
      "Ġtopic": 4326,
      "Ġgit": 4327,
      "Retrieve": 4328,
      "steps": 4329,
      "ĠRun": 4330,
      "Ġengine": 4331,
      "rag": 4332,
      "track": 4333,
      "Ġdictionaries": 4334,
      "em": 4335,
      "Ġbel": 4336,
      "ĠIOError": 4337,
      "pix": 4338,
      "elements": 4339,
      "grees": 4340,
      "Ġrec": 4341,
      "Ġselection": 4342,
      "Ġplatform": 4343,
      "Code": 4344,
      "}/": 4345,
      "Ġtre": 4346,
      "contents": 4347,
      "month": 4348,
      "}\"": 4349,
      "Tag": 4350,
      "Compute": 4351,
      "Ġlow": 4352,
      "Ġknow": 4353,
      "tk": 4354,
      "ĠPO": 4355,
      "Point": 4356,
      "Ġsmall": 4357,
      "Ġhapp": 4358,
      "Ġmade": 4359,
      "vector": 4360,
      "complete": 4361,
      "sec": 4362,
      "Ġinspect": 4363,
      "compile": 4364,
      "modifi": 4365,
      "Ġast": 4366,
      "Ġorg": 4367,
      "Ġpositive": 4368,
      "()]": 4369,
      "Ġ\",": 4370,
      "ĠUpdate": 4371,
      "ĠSub": 4372,
      "Ġfall": 4373,
      "Ġseed": 4374,
      "Line": 4375,
      "slice": 4376,
      "Ġepoch": 4377,
      "icle": 4378,
      "deredDict": 4379,
      "regex": 4380,
      "ability": 4381,
      "itialize": 4382,
      "ferred": 4383,
      "mine": 4384,
      "Ġ%(": 4385,
      "home": 4386,
      "ues": 4387,
      "Ġactions": 4388,
      "ands": 4389,
      "factory": 4390,
      "()``": 4391,
      "Ġ//": 4392,
      "suffix": 4393,
      "Ġ20": 4394,
      "merge": 4395,
      "jor": 4396,
      "Ġtool": 4397,
      "Ġwrapped": 4398,
      "Ġvm": 4399,
      "precated": 4400,
      "uses": 4401,
      "Ġmac": 4402,
      "At": 4403,
      "Def": 4404,
      "dump": 4405,
      "vec": 4406,
      "ygon": 4407,
      "ĠHe": 4408,
      "SET": 4409,
      "tick": 4410,
      "ĠSo": 4411,
      "Ġlinks": 4412,
      "missing": 4413,
      "POST": 4414,
      "sage": 4415,
      "Ġcut": 4416,
      "ribe": 4417,
      "}}": 4418,
      "Ġcsv": 4419,
      "ĠLog": 4420,
      "UM": 4421,
      "axes": 4422,
      "Ġphase": 4423,
      "Ġatom": 4424,
      "If": 4425,
      "Ġradius": 4426,
      "Desc": 4427,
      "Ġreci": 4428,
      "=_": 4429,
      "arm": 4430,
      "Ġ\"{}": 4431,
      "Ġaround": 4432,
      "cid": 4433,
      "eries": 4434,
      "span": 4435,
      "Make": 4436,
      "ĠParse": 4437,
      "03": 4438,
      "ĠInt": 4439,
      "setup": 4440,
      "expand": 4441,
      "Ġpartial": 4442,
      "rer": 4443,
      "Ġequivalent": 4444,
      "ifest": 4445,
      "public": 4446,
      "]])": 4447,
      "Ġprimary": 4448,
      "catalog": 4449,
      "binary": 4450,
      "PTION": 4451,
      "tensor": 4452,
      "hich": 4453,
      "aves": 4454,
      "Ġmandatory": 4455,
      "Ġcolors": 4456,
      "Ġ'')": 4457,
      "Ġinterpol": 4458,
      "ava": 4459,
      "ĠTe": 4460,
      "udio": 4461,
      "Ġupdates": 4462,
      "fun": 4463,
      "Calculate": 4464,
      "Ġbounds": 4465,
      "Ġneighb": 4466,
      "Ġnormalized": 4467,
      "ABLE": 4468,
      "eno": 4469,
      "Ġnothing": 4470,
      "Command": 4471,
      "ited": 4472,
      "Ġener": 4473,
      "Ġpid": 4474,
      "ĠHow": 4475,
      "mbols": 4476,
      "Ġdirectories": 4477,
      "ender": 4478,
      "Ġaggreg": 4479,
      "ally": 4480,
      "Ġ'',": 4481,
      "Ġren": 4482,
      "Ġgene": 4483,
      "nn": 4484,
      "argv": 4485,
      "Print": 4486,
      "reset": 4487,
      "Ġfails": 4488,
      "Method": 4489,
      "ache": 4490,
      "gg": 4491,
      "ĠMax": 4492,
      "Bu": 4493,
      "sn": 4494,
      "ĠBase": 4495,
      "Date": 4496,
      "Ġreading": 4497,
      "auss": 4498,
      "oriz": 4499,
      "Ġlinear": 4500,
      "Ġpredict": 4501,
      "ATA": 4502,
      ".)": 4503,
      "lon": 4504,
      "wi": 4505,
      "crete": 4506,
      "Lay": 4507,
      "see": 4508,
      "Ġdecode": 4509,
      "Ġtargets": 4510,
      "IS": 4511,
      "ĠForm": 4512,
      "Entry": 4513,
      "ĠTra": 4514,
      "Ġsym": 4515,
      "urse": 4516,
      "cepts": 4517,
      "Ġlate": 4518,
      "otes": 4519,
      "ĠIter": 4520,
      "PS": 4521,
      "rand": 4522,
      "dient": 4523,
      "ocument": 4524,
      "Ġdim": 4525,
      "reshape": 4526,
      "press": 4527,
      "ky": 4528,
      "control": 4529,
      "layers": 4530,
      "Ġcompar": 4531,
      "Ġkeywords": 4532,
      "PU": 4533,
      "Ġservices": 4534,
      "caten": 4535,
      "Ġsafe": 4536,
      "Ġbuilt": 4537,
      "oot": 4538,
      "Ġchecked": 4539,
      "utor": 4540,
      "IC": 4541,
      "permission": 4542,
      "scan": 4543,
      "Ġfiltered": 4544,
      "mesh": 4545,
      "Ġlater": 4546,
      "Ġobserv": 4547,
      "Ġnormalize": 4548,
      "Ġflux": 4549,
      "('.": 4550,
      "Ġwrap": 4551,
      "Ġproto": 4552,
      "Ġnumeric": 4553,
      "ĠUT": 4554,
      "links": 4555,
      "etermine": 4556,
      "asis": 4557,
      "Ġdev": 4558,
      "tempts": 4559,
      "counter": 4560,
      "Attribute": 4561,
      "subject": 4562,
      "pkg": 4563,
      "('-": 4564,
      "pu": 4565,
      "Ġbackground": 4566,
      "Ġcla": 4567,
      "Ġcases": 4568,
      "ract": 4569,
      "irst": 4570,
      "Handle": 4571,
      "redu": 4572,
      "05": 4573,
      "XX": 4574,
      "Helper": 4575,
      "fp": 4576,
      "Int": 4577,
      "Ġjobs": 4578,
      "images": 4579,
      "86": 4580,
      "EM": 4581,
      "engine": 4582,
      "ula": 4583,
      "Ġhostname": 4584,
      "multi": 4585,
      "Ġdelimit": 4586,
      "Ġpadding": 4587,
      "Ġtables": 4588,
      "unch": 4589,
      "Ġ})": 4590,
      "forms": 4591,
      "Str": 4592,
      "iddle": 4593,
      "struction": 4594,
      "Ġconversion": 4595,
      "Ġdescriptor": 4596,
      "records": 4597,
      "TS": 4598,
      "emon": 4599,
      "none": 4600,
      "bro": 4601,
      "Ġtemperature": 4602,
      "Ġnorm": 4603,
      "serialize": 4604,
      "definition": 4605,
      "Ġadmin": 4606,
      "components": 4607,
      "onal": 4608,
      "Part": 4609,
      "ĠThere": 4610,
      "Ġround": 4611,
      "history": 4612,
      "Ġrecent": 4613,
      "Ġpur": 4614,
      "Ġparsing": 4615,
      "beta": 4616,
      "ĠFunction": 4617,
      "Ġbuf": 4618,
      "category": 4619,
      "--------------------------------": 4620,
      "Ġscheme": 4621,
      "Ġchunks": 4622,
      "75": 4623,
      "Ġindexes": 4624,
      "ynamic": 4625,
      "Source": 4626,
      "Ġcir": 4627,
      "Ġhour": 4628,
      "lying": 4629,
      "messages": 4630,
      "short": 4631,
      "Ġvectors": 4632,
      "compliance": 4633,
      "Ġlayout": 4634,
      "Ġdevices": 4635,
      "Ġassigned": 4636,
      "sen": 4637,
      "vas": 4638,
      "dirs": 4639,
      "sqrt": 4640,
      "iterable": 4641,
      "ared": 4642,
      "Ġdst": 4643,
      "common": 4644,
      "ks": 4645,
      "Ġprecision": 4646,
      "Ġrelations": 4647,
      "Ġ------": 4648,
      "sidered": 4649,
      "Ġpositions": 4650,
      "ube": 4651,
      "Ġsl": 4652,
      "strument": 4653,
      "Ġprev": 4654,
      "ORM": 4655,
      "View": 4656,
      "before": 4657,
      "ERROR": 4658,
      "eds": 4659,
      "ĠSeries": 4660,
      "ĠGener": 4661,
      "Ġgot": 4662,
      "ĠMust": 4663,
      "Ac": 4664,
      "tri": 4665,
      "Ġrepresents": 4666,
      "sup": 4667,
      "arguments": 4668,
      "Ġta": 4669,
      "Ġdicts": 4670,
      "MM": 4671,
      "Ġdump": 4672,
      "Ġcoeffici": 4673,
      "ascii": 4674,
      "oom": 4675,
      "Ġdid": 4676,
      "Ġconsidered": 4677,
      "ateway": 4678,
      "Ġisn": 4679,
      "bins": 4680,
      "Ġdrop": 4681,
      "Could": 4682,
      "commands": 4683,
      "echo": 4684,
      "chedul": 4685,
      "uman": 4686,
      "256": 4687,
      "Ġinterpre": 4688,
      "Ġmatched": 4689,
      "Ġiteration": 4690,
      "requests": 4691,
      "ĠImport": 4692,
      "kit": 4693,
      "ĠLoad": 4694,
      "UID": 4695,
      "Ġsomething": 4696,
      "Ġobtain": 4697,
      "backend": 4698,
      "users": 4699,
      "Ġcertificate": 4700,
      "Ġclosed": 4701,
      "Checks": 4702,
      "Ġexternal": 4703,
      "minion": 4704,
      "Ġappe": 4705,
      "component": 4706,
      "Ġ\"-": 4707,
      "Ad": 4708,
      "ĠOSError": 4709,
      "23": 4710,
      "channels": 4711,
      "ĠAc": 4712,
      "sources": 4713,
      "ĠDB": 4714,
      "Ġsecret": 4715,
      "lask": 4716,
      "ga": 4717,
      "Ġsubset": 4718,
      "Ġdocstring": 4719,
      "blocks": 4720,
      "Ġschedule": 4721,
      "processing": 4722,
      "compute": 4723,
      "signature": 4724,
      "Server": 4725,
      "ĠQuery": 4726,
      ")])": 4727,
      "TIME": 4728,
      "const": 4729,
      "Ġactiv": 4730,
      "Ġgreater": 4731,
      "this": 4732,
      "ĠMo": 4733,
      "Ġartifact": 4734,
      "66": 4735,
      "Ġ[])": 4736,
      "ĠBuild": 4737,
      "days": 4738,
      "Ġ(%": 4739,
      "digest": 4740,
      "****": 4741,
      "Ġrepe": 4742,
      "ĠAdditional": 4743,
      "separ": 4744,
      "Ġsubscription": 4745,
      "Ġcollections": 4746,
      "rece": 4747,
      "Ġscre": 4748,
      "Fe": 4749,
      "Ġentire": 4750,
      "Ġcfg": 4751,
      "entries": 4752,
      "Ġsurface": 4753,
      "details": 4754,
      "single": 4755,
      "Ġreply": 4756,
      "Ġaverage": 4757,
      "ĠOne": 4758,
      "ĠGiven": 4759,
      "second": 4760,
      "structure": 4761,
      "Dec": 4762,
      "VI": 4763,
      "Job": 4764,
      "Ġtransition": 4765,
      "render": 4766,
      "nsure": 4767,
      "lag": 4768,
      "Ġcore": 4769,
      "Ġcalculated": 4770,
      "Ġâ": 4771,
      "cons": 4772,
      "]+": 4773,
      "members": 4774,
      "Ġsegments": 4775,
      "chan": 4776,
      "provider": 4777,
      "Ġmerged": 4778,
      "Ġfore": 4779,
      "Ġarr": 4780,
      "Ġatta": 4781,
      "Ġns": 4782,
      "ĠStart": 4783,
      "zy": 4784,
      "enabled": 4785,
      "tasks": 4786,
      "We": 4787,
      "ĠOperation": 4788,
      "Search": 4789,
      "Ġinner": 4790,
      ":`.": 4791,
      "Ġraises": 4792,
      "(__": 4793,
      "dated": 4794,
      "usters": 4795,
      "matches": 4796,
      "eval": 4797,
      "sem": 4798,
      "Ġshift": 4799,
      "Ġhig": 4800,
      "ACK": 4801,
      "orld": 4802,
      "alance": 4803,
      "ral": 4804,
      "Ġsetattr": 4805,
      "rency": 4806,
      ")}": 4807,
      "draw": 4808,
      "allet": 4809,
      "ever": 4810,
      "Ġseparate": 4811,
      "ttp": 4812,
      "archy": 4813,
      "\"].": 4814,
      "iteritems": 4815,
      "hostname": 4816,
      "condition": 4817,
      "ĠBe": 4818,
      "Ġmount": 4819,
      "font": 4820,
      "Ġpermissions": 4821,
      "lyph": 4822,
      "Ġassumed": 4823,
      "repr": 4824,
      "driver": 4825,
      "expression": 4826,
      "upported": 4827,
      "orn": 4828,
      "ĠError": 4829,
      "stract": 4830,
      "scal": 4831,
      "ront": 4832,
      "Ġactually": 4833,
      "Tra": 4834,
      "isfile": 4835,
      "running": 4836,
      "available": 4837,
      "HO": 4838,
      "ets": 4839,
      "route": 4840,
      "coordin": 4841,
      "eff": 4842,
      "created": 4843,
      "Ġunable": 4844,
      "ridge": 4845,
      "Ġspect": 4846,
      "Ġleg": 4847,
      ":\\": 4848,
      "Ġ`~": 4849,
      "Ġshared": 4850,
      "orizon": 4851,
      "'``": 4852,
      "Ġordered": 4853,
      "indent": 4854,
      "cm": 4855,
      "ulated": 4856,
      "ĠĠĠĠĠĠĠĠĠĠĠĠĠĠĠĠĠĠĠĠĠĠĠĠĠĠĠĠĠĠĠĠĠĠĠĠĠĠĠĠĠ": 4857,
      "Ġdriver": 4858,
      "System": 4859,
      "Ġsubclass": 4860,
      "Ġcatalog": 4861,
      "worker": 4862,
      "ĠClo": 4863,
      "found": 4864,
      "verify": 4865,
      "Ġspan": 4866,
      "generator": 4867,
      "freq": 4868,
      "hs": 4869,
      "ĠFilter": 4870,
      "Ġtemporary": 4871,
      "Ġgeometry": 4872,
      "threshold": 4873,
      "cript": 4874,
      "ĠImage": 4875,
      "ked": 4876,
      "Ġturn": 4877,
      "ĠMessage": 4878,
      "final": 4879,
      "Ġ[{": 4880,
      "\").": 4881,
      "Ġhistory": 4882,
      "Ġcreates": 4883,
      "={}": 4884,
      "Ġbins": 4885,
      "registry": 4886,
      "Ġ32": 4887,
      "VE": 4888,
      "Ġexperiment": 4889,
      "wards": 4890,
      "olds": 4891,
      "ĠResponse": 4892,
      "Ġthree": 4893,
      "outine": 4894,
      "ĉĉĉĉ": 4895,
      "pd": 4896,
      "astype": 4897,
      "Ġaltern": 4898,
      "SION": 4899,
      "Ġslot": 4900,
      "Ġpad": 4901,
      "Ġans": 4902,
      "Tensor": 4903,
      "Ġcomputed": 4904,
      "Ġtrigger": 4905,
      "branch": 4906,
      "product": 4907,
      "hood": 4908,
      "Ġworkflow": 4909,
      "cos": 4910,
      "Token": 4911,
      "proto": 4912,
      "lict": 4913,
      "ndim": 4914,
      "sync": 4915,
      "setdefault": 4916,
      "Ġsolution": 4917,
      "Ġexecuted": 4918,
      "Ġpixel": 4919,
      "Ġterms": 4920,
      "Ġdepending": 4921,
      "pture": 4922,
      "Ġsecurity": 4923,
      "integer": 4924,
      "ValueError": 4925,
      "ĠRet": 4926,
      "reader": 4927,
      "pus": 4928,
      "Ġswitch": 4929,
      "keyword": 4930,
      "Ġhelper": 4931,
      "Ġfixed": 4932,
      "uess": 4933,
      "Ġdefinitions": 4934,
      "invalid": 4935,
      "Aut": 4936,
      "Ġremaining": 4937,
      "gits": 4938,
      "ops": 4939,
      "Ġadjust": 4940,
      "ilio": 4941,
      "gt": 4942,
      "pandas": 4943,
      "platform": 4944,
      "Cannot": 4945,
      "Of": 4946,
      "hen": 4947,
      "cum": 4948,
      "direction": 4949,
      "Ġboto": 4950,
      "dl": 4951,
      "wrapper": 4952,
      "exclude": 4953,
      "letes": 4954,
      "ongo": 4955,
      "Ġmarker": 4956,
      "OS": 4957,
      "Ġnull": 4958,
      "boot": 4959,
      "__(": 4960,
      "Ġresolve": 4961,
      "Ġ{})": 4962,
      "ationError": 4963,
      "based": 4964,
      "prior": 4965,
      "Converts": 4966,
      "bank": 4967,
      "ĠWindows": 4968,
      "Ġsampling": 4969,
      "BUG": 4970,
      "Ġidentity": 4971,
      "frac": 4972,
      "Block": 4973,
      "Ġuuid": 4974,
      "false": 4975,
      "Ġ'__": 4976,
      "ĠCreates": 4977,
      "Ġnoise": 4978,
      "Ġ''.": 4979,
      "duration": 4980,
      "high": 4981,
      "Ġcells": 4982,
      "obs": 4983,
      "pm": 4984,
      "Ġdue": 4985,
      "Ġdeploy": 4986,
      "Ġdays": 4987,
      "quare": 4988,
      "tein": 4989,
      "SER": 4990,
      "lan": 4991,
      "Ġfilenames": 4992,
      "writer": 4993,
      "ised": 4994,
      "LIN": 4995,
      "gz": 4996,
      "ĠLOGGER": 4997,
      "atic": 4998,
      "ĠThese": 4999,
      "Ġrecursive": 5000,
      "Ġdoct": 5001,
      "Ġspecifying": 5002,
      "ĠModel": 5003,
      "gene": 5004,
      "Ġpotential": 5005,
      "ĠAss": 5006,
      "Ġcross": 5007,
      "ields": 5008,
      "Ġstatic": 5009,
      "cr": 5010,
      "utton": 5011,
      "Ġcandidate": 5012,
      "Ġdelay": 5013,
      "son": 5014,
      "ertain": 5015,
      "topic": 5016,
      "onical": 5017,
      "Ġsw": 5018,
      "Ġsparse": 5019,
      "colors": 5020,
      "hour": 5021,
      "SV": 5022,
      "ĠĠĠĠĠĠĠĠĠĠĠĠĠĠĠĠĠĠĠĠĠĠĠĠĠĠĠĠĠĠĠĠĠĠĠĠĠĠĠĠĠĠĠ": 5023,
      "ool": 5024,
      "enum": 5025,
      "Ġ15": 5026,
      "clar": 5027,
      "signed": 5028,
      "44": 5029,
      "Action": 5030,
      "shell": 5031,
      "andidates": 5032,
      "ĠIN": 5033,
      "Ġ{},": 5034,
      "Ġutil": 5035,
      "\"]:": 5036,
      "ĠState": 5037,
      "riteria": 5038,
      "abspath": 5039,
      "question": 5040,
      "Ġcurve": 5041,
      "AST": 5042,
      "Ġextracted": 5043,
      "Ġenergy": 5044,
      "Ġmd": 5045,
      "Ġunless": 5046,
      "Ġbig": 5047,
      "Ġbasestring": 5048,
      "oring": 5049,
      "Ġreader": 5050,
      "AML": 5051,
      "Ġbasic": 5052,
      "Ġdiag": 5053,
      "Ġvide": 5054,
      "clusive": 5055,
      "cio": 5056,
      "rong": 5057,
      "ond": 5058,
      "Ġdefine": 5059,
      "ada": 5060,
      "packages": 5061,
      "Ġreads": 5062,
      "operation": 5063,
      "Sign": 5064,
      "Ġtick": 5065,
      "Ġconstructor": 5066,
      "bam": 5067,
      "ĠTuple": 5068,
      "FIG": 5069,
      "Ġpixels": 5070,
      "loss": 5071,
      "Ġreferences": 5072,
      "ĠNew": 5073,
      "Parameters": 5074,
      "Ġpipe": 5075,
      "bounds": 5076,
      "serve": 5077,
      "ĠShould": 5078,
      "services": 5079,
      "ĠNe": 5080,
      "Ġ))": 5081,
      "Ġintegers": 5082,
      "iler": 5083,
      "pad": 5084,
      "itable": 5085,
      "Ġunknown": 5086,
      "ssl": 5087,
      "Ġthreads": 5088,
      "Ġsat": 5089,
      "proc": 5090,
      "Ġanaly": 5091,
      "cover": 5092,
      "ĠAt": 5093,
      "ĠSh": 5094,
      "ĠGraph": 5095,
      "Ġconstant": 5096,
      "}:": 5097,
      "Ġconv": 5098,
      "Ġgoogle": 5099,
      "percent": 5100,
      "area": 5101,
      "ENT": 5102,
      "scape": 5103,
      "Ġowner": 5104,
      "78": 5105,
      "lished": 5106,
      "ASE": 5107,
      "OK": 5108,
      "ZE": 5109,
      "iver": 5110,
      "lott": 5111,
      "inner": 5112,
      "illar": 5113,
      "layout": 5114,
      "Ġds": 5115,
      "rot": 5116,
      "ider": 5117,
      "GB": 5118,
      "Ġlatest": 5119,
      "orter": 5120,
      "pers": 5121,
      "assessment": 5122,
      "Ġtimezone": 5123,
      "SU": 5124,
      "__.__": 5125,
      "ully": 5126,
      "cogn": 5127,
      "ĠKeyword": 5128,
      "ĠUsed": 5129,
      "Ġ1000": 5130,
      "Ġcomplex": 5131,
      "fasta": 5132,
      "atom": 5133,
      "Ġannotation": 5134,
      "OL": 5135,
      "Ġpr": 5136,
      "Ġsensor": 5137,
      "ĠInter": 5138,
      "Unknown": 5139,
      "Ġconver": 5140,
      "Ġencode": 5141,
      "ka": 5142,
      "Ġprompt": 5143,
      "Ġserialized": 5144,
      "ynchronous": 5145,
      "Task": 5146,
      "Ġasync": 5147,
      "voke": 5148,
      "done": 5149,
      "correct": 5150,
      "Ġmultip": 5151,
      "Ġconditions": 5152,
      "itespace": 5153,
      "stmt": 5154,
      "Ġcaller": 5155,
      "metrics": 5156,
      "Ġvertex": 5157,
      "Open": 5158,
      "Ġcertain": 5159,
      "Ġsubnet": 5160,
      "Unable": 5161,
      "UE": 5162,
      "ti": 5163,
      "Ġbutton": 5164,
      ".\",": 5165,
      "Ġframes": 5166,
      "Warning": 5167,
      "ffici": 5168,
      "([[": 5169,
      "unic": 5170,
      "connected": 5171,
      "Ġboot": 5172,
      "Parameter": 5173,
      "targets": 5174,
      ")).": 5175,
      "Ġcontroller": 5176,
      "asset": 5177,
      "resp": 5178,
      "Ġaddresses": 5179,
      "Ġimmediate": 5180,
      "Ġrefresh": 5181,
      "Ġmut": 5182,
      "09": 5183,
      "Ġ\"--": 5184,
      "Ġchecking": 5185,
      "SL": 5186,
      "Ġcb": 5187,
      "transaction": 5188,
      "ools": 5189,
      "edia": 5190,
      "Ġ'<": 5191,
      "Ġada": 5192,
      "activ": 5193,
      "Ġbad": 5194,
      "Ġcloud": 5195,
      ":])": 5196,
      "gent": 5197,
      "progress": 5198,
      "yncio": 5199,
      "ĠNetwork": 5200,
      "strings": 5201,
      "Ġloss": 5202,
      "lastic": 5203,
      "Ġ[],": 5204,
      "coming": 5205,
      "cluded": 5206,
      "Ġcompare": 5207,
      "orth": 5208,
      "ports": 5209,
      "estim": 5210,
      "cryption": 5211,
      "ampler": 5212,
      "unpack": 5213,
      "Ġsigned": 5214,
      "=['": 5215,
      "istration": 5216,
      "ently": 5217,
      "sock": 5218,
      "posed": 5219,
      "tainer": 5220,
      "Act": 5221,
      "DD": 5222,
      "Ġrelation": 5223,
      "Ġpeer": 5224,
      "aN": 5225,
      "ĠFirst": 5226,
      "rectory": 5227,
      "endar": 5228,
      "II": 5229,
      "rupt": 5230,
      "Ġratio": 5231,
      "ĠĠĠĠĠĠĠĠĠĠĠĠĠĠĠĠĠĠĠĠĠĠĠĠĠĠĠĠĠĠĠĠĠĠĠĠĠĠĠĠĠĠ": 5232,
      "Ġpatterns": 5233,
      "Box": 5234,
      "ueue": 5235,
      "ĠText": 5236,
      "Level": 5237,
      "require": 5238,
      "cial": 5239,
      "']))": 5240,
      "(\\": 5241,
      "Ġintegr": 5242,
      "dst": 5243,
      "Implemented": 5244,
      "boolean": 5245,
      "alf": 5246,
      "pdf": 5247,
      "ĠOrderedDict": 5248,
      "Ġadding": 5249,
      "configuration": 5250,
      "sym": 5251,
      "Column": 5252,
      "lip": 5253,
      "istic": 5254,
      "Ġfreq": 5255,
      "PRE": 5256,
      "Ġgu": 5257,
      "ĠClient": 5258,
      "Ġmodify": 5259,
      "Ġpriority": 5260,
      "Ġfact": 5261,
      "Ġruns": 5262,
      "ĠNum": 5263,
      "ĠRec": 5264,
      "skip": 5265,
      "Ġaudio": 5266,
      "irs": 5267,
      "ĠMethod": 5268,
      "compat": 5269,
      "ĠTable": 5270,
      "END": 5271,
      "ĠWill": 5272,
      "Ġaddr": 5273,
      "iteral": 5274,
      "frames": 5275,
      "Ġresid": 5276,
      "ĠWork": 5277,
      "Exist": 5278,
      "Ġseen": 5279,
      "adr": 5280,
      "inf": 5281,
      "Ġstrict": 5282,
      "sect": 5283,
      "Save": 5284,
      "rypt": 5285,
      "Ġcover": 5286,
      "Ġforward": 5287,
      "Ġ::": 5288,
      "Ġcols": 5289,
      "coder": 5290,
      "Ġlin": 5291,
      "Ġlead": 5292,
      "Ġ),": 5293,
      "perty": 5294,
      "origin": 5295,
      "variant": 5296,
      "Ġsuccessfully": 5297,
      "rum": 5298,
      "Ġwa": 5299,
      "ĠVM": 5300,
      "Ġconnections": 5301,
      "So": 5302,
      "encoded": 5303,
      "Ġpatch": 5304,
      "ison": 5305,
      "Ġruntime": 5306,
      "]],": 5307,
      "zen": 5308,
      "ĠGenerate": 5309,
      "lier": 5310,
      "Ġtwilio": 5311,
      "hot": 5312,
      "Ref": 5313,
      "Ġlocations": 5314,
      "levant": 5315,
      "YY": 5316,
      "={'": 5317,
      "drop": 5318,
      "Ġrect": 5319,
      "wo": 5320,
      "Address": 5321,
      "Ġscipy": 5322,
      "ific": 5323,
      "Ġwin": 5324,
      "iling": 5325,
      "(?": 5326,
      "Ġdegrees": 5327,
      "\"][\"": 5328,
      "ĠOutput": 5329,
      "rieves": 5330,
      "Over": 5331,
      "mar": 5332,
      "tile": 5333,
      "Ġstarts": 5334,
      "construct": 5335,
      "Ġplugins": 5336,
      "configs": 5337,
      "Ġstatements": 5338,
      "Ġbehavior": 5339,
      "anded": 5340,
      "Ġones": 5341,
      "Ġcreation": 5342,
      "Ġincludes": 5343,
      "ĠSpecifi": 5344,
      "Ġindicates": 5345,
      "Ġ(``": 5346,
      "isdir": 5347,
      "Ġparallel": 5348,
      "ĠFI": 5349,
      "Api": 5350,
      "Ġperformed": 5351,
      "Dataset": 5352,
      "Ġprocesses": 5353,
      "Ġcontained": 5354,
      "snapshot": 5355,
      "variance": 5356,
      "wn": 5357,
      "private": 5358,
      "Ġdependency": 5359,
      "Cell": 5360,
      "FS": 5361,
      "Output": 5362,
      "mut": 5363,
      "']]": 5364,
      "ĠAd": 5365,
      "gether": 5366,
      "Ġstarted": 5367,
      "ASS": 5368,
      "orator": 5369,
      "Ġgets": 5370,
      "ĠIndexError": 5371,
      "Ġtaken": 5372,
      "aussian": 5373,
      "pred": 5374,
      "scheme": 5375,
      "ulk": 5376,
      "=-": 5377,
      "virt": 5378,
      "Pa": 5379,
      "appings": 5380,
      "Sequence": 5381,
      "etter": 5382,
      "ĠCurrent": 5383,
      "pice": 5384,
      "authentic": 5385,
      "35": 5386,
      "Ġstrip": 5387,
      "INT": 5388,
      "Device": 5389,
      "ĠPermission": 5390,
      "arange": 5391,
      "ĠNOTE": 5392,
      "Ġtar": 5393,
      "Ġcast": 5394,
      "aps": 5395,
      "LL": 5396,
      "Ġflatten": 5397,
      "36": 5398,
      "Ġfactory": 5399,
      "upload": 5400,
      "simp": 5401,
      "chor": 5402,
      "viation": 5403,
      "Ġ30": 5404,
      "Ġlogs": 5405,
      "library": 5406,
      "sur": 5407,
      "family": 5408,
      "erred": 5409,
      "Ġio": 5410,
      "LAN": 5411,
      "cu": 5412,
      "flush": 5413,
      "Validate": 5414,
      "Connect": 5415,
      "Ġrequirements": 5416,
      "dit": 5417,
      "parsed": 5418,
      "archive": 5419,
      "Ġprobability": 5420,
      "Ġfs": 5421,
      "arest": 5422,
      "uint": 5423,
      "_)": 5424,
      ")'": 5425,
      "nb": 5426,
      "Ġstatistics": 5427,
      "ĠNull": 5428,
      "ACE": 5429,
      "inv": 5430,
      "predi": 5431,
      "cheduler": 5432,
      "failed": 5433,
      "Ġcomments": 5434,
      "Serial": 5435,
      "izing": 5436,
      "Ġscreen": 5437,
      "Ra": 5438,
      "nitude": 5439,
      "Ġinstant": 5440,
      "Layer": 5441,
      "den": 5442,
      "refresh": 5443,
      "Ġoptionally": 5444,
      "flux": 5445,
      "ĠMaximum": 5446,
      "Ġden": 5447,
      "bos": 5448,
      "Ġmakes": 5449,
      "ĠOperationFailed": 5450,
      "(',": 5451,
      "Variable": 5452,
      "hy": 5453,
      "free": 5454,
      "Ġcard": 5455,
      "Ġmedia": 5456,
      "Ġ\"_": 5457,
      "equal": 5458,
      "Ġsigma": 5459,
      "ranscript": 5460,
      "Ġvideo": 5461,
      "CONFIG": 5462,
      "Work": 5463,
      "Ġ(`": 5464,
      ")``": 5465,
      "Ġts": 5466,
      "Ġmass": 5467,
      "Ġdeprecated": 5468,
      "imal": 5469,
      "sigma": 5470,
      "\\'": 5471,
      "adcast": 5472,
      "ĠSy": 5473,
      "Download": 5474,
      "owner": 5475,
      "70": 5476,
      "SD": 5477,
      "rr": 5478,
      "attach": 5479,
      "Ġ19": 5480,
      "amo": 5481,
      "Ġgive": 5482,
      "export": 5483,
      "---+": 5484,
      "delay": 5485,
      "alth": 5486,
      "plan": 5487,
      "atial": 5488,
      "Ġpreviously": 5489,
      "39": 5490,
      "End": 5491,
      "Ġtz": 5492,
      "calc": 5493,
      "Ġvertices": 5494,
      ")\"": 5495,
      "embed": 5496,
      "Ġpages": 5497,
      "quote": 5498,
      "epcopy": 5499,
      "Ġfree": 5500,
      "Ġwhole": 5501,
      "Ġunderlying": 5502,
      "utdown": 5503,
      "MENT": 5504,
      "Ġlayers": 5505,
      "Ġdoctest": 5506,
      "Ġrotation": 5507,
      "seed": 5508,
      "expi": 5509,
      "ĠMark": 5510,
      "Ġanything": 5511,
      "orizontal": 5512,
      "epoch": 5513,
      "ALL": 5514,
      "constraint": 5515,
      "rules": 5516,
      "bi": 5517,
      "STR": 5518,
      "ĠQt": 5519,
      "mk": 5520,
      "Ġlongitude": 5521,
      "Ġderived": 5522,
      "FC": 5523,
      "Ġ60": 5524,
      "uest": 5525,
      "Ġmot": 5526,
      "Ġstage": 5527,
      "disk": 5528,
      "Ġpag": 5529,
      "Ġscores": 5530,
      "Logger": 5531,
      "lec": 5532,
      "operator": 5533,
      "Ġlatitude": 5534,
      "ription": 5535,
      "84": 5536,
      "ORD": 5537,
      "functions": 5538,
      "iate": 5539,
      "Ġtransport": 5540,
      "partial": 5541,
      "urations": 5542,
      "Ġdifference": 5543,
      "Ġreplaced": 5544,
      "Ġredis": 5545,
      "original": 5546,
      "PAR": 5547,
      "Ġlevels": 5548,
      "Pl": 5549,
      "ĠBoolean": 5550,
      "ĠNotImplemented": 5551,
      "Ġpublish": 5552,
      "hosts": 5553,
      "Ġlarge": 5554,
      "mass": 5555,
      "Ġcost": 5556,
      "Widget": 5557,
      "Ġplay": 5558,
      "DIR": 5559,
      "ish": 5560,
      "ĠUnicode": 5561,
      "comb": 5562,
      "internal": 5563,
      "Ġfully": 5564,
      "loader": 5565,
      "Row": 5566,
      "AA": 5567,
      "ĠElement": 5568,
      "refs": 5569,
      "Test": 5570,
      "selection": 5571,
      "strap": 5572,
      "ssh": 5573,
      "rant": 5574,
      "Ġexamples": 5575,
      "Ġonto": 5576,
      "='',": 5577,
      "Ġfloats": 5578,
      "ritical": 5579,
      "Ġgeo": 5580,
      "Ġwriter": 5581,
      "################": 5582,
      "sto": 5583,
      ")*": 5584,
      "Ġsync": 5585,
      "lihood": 5586,
      "Ġpress": 5587,
      "'},": 5588,
      "Ġplott": 5589,
      "Ġsmoot": 5590,
      "rences": 5591,
      "Ġeas": 5592,
      "bitrary": 5593,
      "Ġuid": 5594,
      "dependent": 5595,
      "Ġalt": 5596,
      "ĠPOST": 5597,
      "png": 5598,
      "coord": 5599,
      "Ġrout": 5600,
      "ĠWrite": 5601,
      "inish": 5602,
      "PER": 5603,
      "ĠOver": 5604,
      "calcul": 5605,
      "atrix": 5606,
      "ty": 5607,
      "Ġcoords": 5608,
      "pology": 5609,
      "machine": 5610,
      "Ġcountry": 5611,
      "Ġsimply": 5612,
      "park": 5613,
      "Ġconsole": 5614,
      "Ġdouble": 5615,
      "FL": 5616,
      "Ġvocab": 5617,
      "ARN": 5618,
      "derer": 5619,
      "Ġsec": 5620,
      "Ġcodes": 5621,
      "semble": 5622,
      "Ġnotebook": 5623,
      "seek": 5624,
      "roy": 5625,
      "Ġlisten": 5626,
      "rase": 5627,
      "inder": 5628,
      "Ġdocker": 5629,
      "dence": 5630,
      "ĠField": 5631,
      "instances": 5632,
      "Ġexplicitly": 5633,
      "chemy": 5634,
      "Ġformats": 5635,
      "Ġsca": 5636,
      "Ġmx": 5637,
      "')]": 5638,
      "Ġexecutable": 5639,
      "static": 5640,
      "Ġready": 5641,
      "glob": 5642,
      "Ġdocs": 5643,
      "feed": 5644,
      "Ġadds": 5645,
      "override": 5646,
      "reduce": 5647,
      "ace": 5648,
      "ience": 5649,
      "Ġtogether": 5650,
      "handlers": 5651,
      "Ġstmt": 5652,
      "Ġhard": 5653,
      "Ġdecimal": 5654,
      "ĠEnt": 5655,
      "Ġhosts": 5656,
      "Register": 5657,
      "Ġep": 5658,
      "Ġglob": 5659,
      "Ġcookie": 5660,
      "')[": 5661,
      "ĠResource": 5662,
      "pairs": 5663,
      "Ġqual": 5664,
      "Ġsupports": 5665,
      "utc": 5666,
      "Ġord": 5667,
      "PY": 5668,
      "hat": 5669,
      "ĠST": 5670,
      "Ġretrieved": 5671,
      "Ġfd": 5672,
      "semb": 5673,
      "Ġfoo": 5674,
      "mes": 5675,
      "Ġbundle": 5676,
      "best": 5677,
      "ptr": 5678,
      "Ġshutil": 5679,
      "Ġsn": 5680,
      "pipeline": 5681,
      "'\"": 5682,
      "sr": 5683,
      "atter": 5684,
      "Ġelem": 5685,
      "ĠGroup": 5686,
      "Ġqueryset": 5687,
      "Ġiterations": 5688,
      "jac": 5689,
      "Ġrespon": 5690,
      "Ġhandling": 5691,
      "Ġtraceback": 5692,
      "ĠResult": 5693,
      ".',": 5694,
      "tle": 5695,
      "power": 5696,
      "SA": 5697,
      "inary": 5698,
      "anization": 5699,
      "ĠCompute": 5700,
      ".'''": 5701,
      "ĠĠĠĠĠĠĠĠĠĠĠĠĠĠĠĠĠĠĠĠĠĠĠĠĠĠĠĠĠĠĠĠĠĠĠĠĠĠĠĠĠĠĠĠ": 5702,
      "Ġpassing": 5703,
      "Collection": 5704,
      ".'.": 5705,
      "Sy": 5706,
      "Ġsender": 5707,
      "('_": 5708,
      "ba": 5709,
      "outputs": 5710,
      "Ġrather": 5711,
      "cached": 5712,
      "Ġattached": 5713,
      "rites": 5714,
      "Ġedit": 5715,
      "FT": 5716,
      "dx": 5717,
      "ja": 5718,
      "Ġsli": 5719,
      "ident": 5720,
      "callable": 5721,
      "which": 5722,
      "radius": 5723,
      "Ġprevent": 5724,
      "pick": 5725,
      "Ġdetermined": 5726,
      "pied": 5727,
      "unct": 5728,
      "ĠGET": 5729,
      "Ġacross": 5730,
      "Ġdocuments": 5731,
      "Ġbottom": 5732,
      "Ġinplace": 5733,
      "Ġoverrid": 5734,
      "Ġ[-": 5735,
      "atting": 5736,
      "cwd": 5737,
      "Ġspa": 5738,
      "Ġresolution": 5739,
      "Ġpay": 5740,
      "oked": 5741,
      "Ġindicate": 5742,
      "wb": 5743,
      "Ġblob": 5744,
      "Access": 5745,
      "related": 5746,
      "Ġhappen": 5747,
      "ategy": 5748,
      "nl": 5749,
      "Ġeig": 5750,
      "geo": 5751,
      "linear": 5752,
      "tables": 5753,
      "Ġexpand": 5754,
      "ached": 5755,
      "fin": 5756,
      "Ġvol": 5757,
      "diag": 5758,
      "Ġdecorated": 5759,
      "Params": 5760,
      "Ġwriting": 5761,
      "Ġalignment": 5762,
      "pan": 5763,
      "Ġmapped": 5764,
      "BO": 5765,
      "car": 5766,
      "ĠProcess": 5767,
      "Ġdescribing": 5768,
      "emit": 5769,
      "Ġband": 5770,
      "Ġaccepted": 5771,
      "_(": 5772,
      "Ġpending": 5773,
      "ips": 5774,
      "cpu": 5775,
      "ism": 5776,
      "Ġkeyid": 5777,
      "Ġface": 5778,
      "Ġsep": 5779,
      "Ġdelimiter": 5780,
      "NE": 5781,
      "Red": 5782,
      "Ġoverlap": 5783,
      "mas": 5784,
      "usage": 5785,
      "docker": 5786,
      "tour": 5787,
      "LETE": 5788,
      "Ġinitialized": 5789,
      "Ġdownloaded": 5790,
      "supported": 5791,
      "Ġexpr": 5792,
      "Ġbook": 5793,
      "plugins": 5794,
      "Ġlonger": 5795,
      "Ġidentify": 5796,
      "prog": 5797,
      "Ġes": 5798,
      "Ġpretty": 5799,
      "90": 5800,
      "ĠDef": 5801,
      "ĠHandle": 5802,
      "Ġ')": 5803,
      "sw": 5804,
      "DATA": 5805,
      "Ġprojection": 5806,
      "sertion": 5807,
      "covery": 5808,
      "Ġcompletion": 5809,
      "Reference": 5810,
      "slug": 5811,
      "ragma": 5812,
      "Com": 5813,
      "Ġmix": 5814,
      "Spec": 5815,
      "holder": 5816,
      "Ġthrow": 5817,
      "relations": 5818,
      "Ġapproxim": 5819,
      "Ġduplicate": 5820,
      "Ġseparated": 5821,
      "Ġtranslation": 5822,
      "Ġrestart": 5823,
      "amer": 5824,
      "typ": 5825,
      "isters": 5826,
      "selected": 5827,
      "cn": 5828,
      "%(": 5829,
      "devices": 5830,
      "ĠISO": 5831,
      ".\\": 5832,
      "Parses": 5833,
      "ird": 5834,
      "transl": 5835,
      "Ġbasis": 5836,
      "sections": 5837,
      "naif": 5838,
      "urls": 5839,
      "Ġrepr": 5840,
      "Ġsol": 5841,
      "ĠRed": 5842,
      "credentials": 5843,
      "ssib": 5844,
      "INFO": 5845,
      "JSON": 5846,
      "Network": 5847,
      "Ġnb": 5848,
      "Ġvery": 5849,
      "``:": 5850,
      "subprocess": 5851,
      "begin": 5852,
      "ĠImportError": 5853,
      "Ġfamily": 5854,
      "Ġps": 5855,
      "ĠEvent": 5856,
      "acity": 5857,
      "choice": 5858,
      "Ġdates": 5859,
      "Ġpointer": 5860,
      "ĠGo": 5861,
      "Ġbeginning": 5862,
      "logical": 5863,
      "shift": 5864,
      "itation": 5865,
      "{}\".": 5866,
      "29": 5867,
      "Ġoutfile": 5868,
      "iso": 5869,
      "ĠMin": 5870,
      "Ġconstraints": 5871,
      "Plot": 5872,
      "Use": 5873,
      "]*": 5874,
      "ired": 5875,
      "Ġunpack": 5876,
      "dn": 5877,
      "conv": 5878,
      "osen": 5879,
      "Pack": 5880,
      "fact": 5881,
      "ov": 5882,
      "Ġcompleted": 5883,
      "constants": 5884,
      "Ġpeak": 5885,
      "enari": 5886,
      "Ġgood": 5887,
      "icip": 5888,
      "Ġdjango": 5889,
      "rpc": 5890,
      "slot": 5891,
      "esian": 5892,
      "Ġhuman": 5893,
      "neighb": 5894,
      "ĠNullArgument": 5895,
      "amount": 5896,
      "Ġvalidator": 5897,
      "=\"\"": 5898,
      "Can": 5899,
      "uation": 5900,
      "stall": 5901,
      "Ġqueries": 5902,
      "methods": 5903,
      "ado": 5904,
      "venience": 5905,
      "Ġnever": 5906,
      "ĠAut": 5907,
      "antity": 5908,
      "Construct": 5909,
      "Ġdatasets": 5910,
      "big": 5911,
      "FORM": 5912,
      "Ġproc": 5913,
      "Ġrdf": 5914,
      "dimensional": 5915,
      "NG": 5916,
      "media": 5917,
      "nail": 5918,
      "Ġcontract": 5919,
      "Ġ':": 5920,
      "blob": 5921,
      "Perform": 5922,
      "77": 5923,
      "runtime": 5924,
      "Ġ?": 5925,
      "kernel": 5926,
      "predict": 5927,
      "Ġprice": 5928,
      "mu": 5929,
      "Pol": 5930,
      "break": 5931,
      "Ġdensity": 5932,
      "week": 5933,
      "Metadata": 5934,
      "analysis": 5935,
      "modified": 5936,
      "ĠĠĠĠĠĠĠĠĠĠĠĠĠĠĠĠĠĠĠĠĠĠĠĠĠĠĠĠĠĠĠĠĠĠĠĠĠĠĠĠĠĠĠĠĠ": 5937,
      "-+-+-+-+-+-+-+-+-+-+-+-+-+-+-+-+": 5938,
      "Ver": 5939,
      "reen": 5940,
      "indexes": 5941,
      "58": 5942,
      "Ġssh": 5943,
      "Ġenviron": 5944,
      "Ġgradient": 5945,
      "cce": 5946,
      "------------": 5947,
      "Ġutool": 5948,
      "ensors": 5949,
      "Ġfraction": 5950,
      "Obj": 5951,
      "Ġinitialize": 5952,
      "DU": 5953,
      "vol": 5954,
      "cify": 5955,
      "rstrip": 5956,
      "editor": 5957,
      "Ġblank": 5958,
      "environment": 5959,
      "Ġdegree": 5960,
      "tack": 5961,
      "Ġsending": 5962,
      "_:": 5963,
      "allable": 5964,
      "Ġobs": 5965,
      "lapsed": 5966,
      "``)": 5967,
      "lecule": 5968,
      "SK": 5969,
      "attention": 5970,
      ">,": 5971,
      "atype": 5972,
      "security": 5973,
      "Ġbeta": 5974,
      "Ġdro": 5975,
      "rive": 5976,
      "normalize": 5977,
      "mq": 5978,
      "workflow": 5979,
      "Timeout": 5980,
      "Ġseparator": 5981,
      "prepare": 5982,
      "Ġintervals": 5983,
      "Ġspaces": 5984,
      "mlink": 5985,
      "Ġconsider": 5986,
      "oto": 5987,
      "Ġchrom": 5988,
      "Ġprepare": 5989,
      "builder": 5990,
      "Ġminutes": 5991,
      "qa": 5992,
      "~~": 5993,
      "reverse": 5994,
      "Den": 5995,
      "MI": 5996,
      "istent": 5997,
      "pages": 5998,
      "Ġfilesystem": 5999,
      "Ġmaps": 6000,
      "tar": 6001,
      "Ġsever": 6002,
      "ĠMulti": 6003,
      "Ġextensions": 6004,
      "Ġhidden": 6005,
      "Ġ<<": 6006,
      "ĠSearch": 6007,
      "ĠStr": 6008,
      "prompt": 6009,
      "DEBUG": 6010,
      "Ġspeed": 6011,
      "reason": 6012,
      "Ġtrunc": 6013,
      "\"\\": 6014,
      "Vector": 6015,
      "Ġdigest": 6016,
      "Ġchecksum": 6017,
      "Ġshare": 6018,
      "Ġimmediately": 6019,
      "Cur": 6020,
      "compress": 6021,
      "closed": 6022,
      "phi": 6023,
      "rigger": 6024,
      "All": 6025,
      "PL": 6026,
      "inger": 6027,
      "SIZE": 6028,
      "Thread": 6029,
      ".\".": 6030,
      "()`": 6031,
      "ĠUsage": 6032,
      "soft": 6033,
      "walk": 6034,
      "decor": 6035,
      "ĠStop": 6036,
      "ĠPass": 6037,
      "255": 6038,
      "reply": 6039,
      ")/": 6040,
      "iet": 6041,
      "quires": 6042,
      "Ġrelevant": 6043,
      "Ġreceive": 6044,
      "1000": 6045,
      "Ġnan": 6046,
      "Ġve": 6047,
      "cape": 6048,
      "Ġcompatible": 6049,
      "Ġpip": 6050,
      "rank": 6051,
      "future": 6052,
      "theta": 6053,
      "egr": 6054,
      "ummy": 6055,
      "lists": 6056,
      "resolve": 6057,
      "Ġsubmission": 6058,
      "versal": 6059,
      "Ġhistogram": 6060,
      "Ġderiv": 6061,
      "Qt": 6062,
      "vocation": 6063,
      "identity": 6064,
      "Ġ24": 6065,
      "Ass": 6066,
      "tl": 6067,
      "Ġhandlers": 6068,
      "ratio": 6069,
      "escape": 6070,
      "vered": 6071,
      "ĠInstance": 6072,
      "pending": 6073,
      "ĠServer": 6074,
      "bosity": 6075,
      "geometry": 6076,
      "CM": 6077,
      "Ġwatch": 6078,
      "collect": 6079,
      "ench": 6080,
      "ĠNotImplementedError": 6081,
      "Cre": 6082,
      "Ġspecifies": 6083,
      "Ġtemplates": 6084,
      "edit": 6085,
      "Ġmenu": 6086,
      "dian": 6087,
      "ĠDataset": 6088,
      "Ġlimits": 6089,
      "alculates": 6090,
      "Ġappear": 6091,
      "unknown": 6092,
      "Ġmis": 6093,
      "ĠGe": 6094,
      "USER": 6095,
      "allowed": 6096,
      "AY": 6097,
      "schedule": 6098,
      "redirect": 6099,
      "dependencies": 6100,
      "umbnail": 6101,
      "versed": 6102,
      "ĠSets": 6103,
      "Ġsections": 6104,
      "Ġregions": 6105,
      "roid": 6106,
      "Ġresolved": 6107,
      "ĠRequired": 6108,
      "ORT": 6109,
      "keywords": 6110,
      "omial": 6111,
      "aa": 6112,
      "urther": 6113,
      "28": 6114,
      "aggreg": 6115,
      "Ġtheta": 6116,
      "accept": 6117,
      "Pri": 6118,
      "Ġdecoded": 6119,
      "ĠGit": 6120,
      "redis": 6121,
      "Ġenough": 6122,
      ",))": 6123,
      "Ġpragma": 6124,
      "Ġsyntax": 6125,
      "Ġflat": 6126,
      "Ġmime": 6127,
      "ĠTry": 6128,
      "Ġbecome": 6129,
      "ĠService": 6130,
      "Ġlogic": 6131,
      "PIPE": 6132,
      "CF": 6133,
      "Dir": 6134,
      "Ġresponses": 6135,
      "Ġ\\'": 6136,
      "*.": 6137,
      "ĠSalt": 6138,
      "grams": 6139,
      "Ġstri": 6140,
      "tod": 6141,
      "using": 6142,
      "MAX": 6143,
      "Generates": 6144,
      "Det": 6145,
      "Ġteam": 6146,
      "Ġski": 6147,
      "Ġbetter": 6148,
      "terms": 6149,
      "ĠDjango": 6150,
      "notification": 6151,
      "argin": 6152,
      "Ġslug": 6153,
      "ĠCalculate": 6154,
      "iration": 6155,
      "Ġsentence": 6156,
      "ned": 6157,
      "rev": 6158,
      "('.')": 6159,
      "ftime": 6160,
      "ables": 6161,
      "imize": 6162,
      "Select": 6163,
      "ierarchy": 6164,
      "latest": 6165,
      "asa": 6166,
      "maked": 6167,
      "Ġlogical": 6168,
      "Ġentities": 6169,
      "wraps": 6170,
      "ĠEither": 6171,
      "Ġoutside": 6172,
      "/'": 6173,
      "Ġfinished": 6174,
      "Ġ11": 6175,
      "Removes": 6176,
      "Ġcalculation": 6177,
      "Ġsymbols": 6178,
      "'ll": 6179,
      "XT": 6180,
      "blems": 6181,
      "Ġarbitrary": 6182,
      "Ġrouting": 6183,
      "forward": 6184,
      "flatten": 6185,
      "Denied": 6186,
      "Ġear": 6187,
      "ĠNOT": 6188,
      "ĠNotFound": 6189,
      "Ġ])": 6190,
      "Ġinverse": 6191,
      "posure": 6192,
      "versions": 6193,
      "Ġ50": 6194,
      "Ġrecursively": 6195,
      "anit": 6196,
      "ĠCO": 6197,
      "ROM": 6198,
      "getattr": 6199,
      "Initialize": 6200,
      ")(": 6201,
      "Ġphi": 6202,
      "ĠSim": 6203,
      "26": 6204,
      "Ġvs": 6205,
      "ĠAuth": 6206,
      "ĠPrint": 6207,
      "iving": 6208,
      "ĠLe": 6209,
      "band": 6210,
      "Ġurllib": 6211,
      ">'": 6212,
      "ĠExec": 6213,
      "Ġannotations": 6214,
      "Ġmonitor": 6215,
      "Ġevaluate": 6216,
      "Ġexactly": 6217,
      "Ġke": 6218,
      "joint": 6219,
      "transport": 6220,
      "etermin": 6221,
      "sparse": 6222,
      "COL": 6223,
      "aws": 6224,
      "Ġpull": 6225,
      "ildcard": 6226,
      "Ġapplies": 6227,
      "Ġwave": 6228,
      "Ġconsumer": 6229,
      "Ġbuilder": 6230,
      "Ġobjective": 6231,
      "Page": 6232,
      "rd": 6233,
      "px": 6234,
      "helper": 6235,
      "Ġsimulation": 6236,
      "adratic": 6237,
      "ony": 6238,
      "Import": 6239,
      "27": 6240,
      "fc": 6241,
      "Ġinher": 6242,
      "xes": 6243,
      "Is": 6244,
      "Ġabort": 6245,
      "Ġasyncio": 6246,
      "Ġrepresented": 6247,
      "GI": 6248,
      "destination": 6249,
      "ĠCloud": 6250,
      "Document": 6251,
      "Ġdialog": 6252,
      "Ġ``(": 6253,
      "ĠDesc": 6254,
      "Ġeverything": 6255,
      "enable": 6256,
      "Ġparents": 6257,
      "ĠYAML": 6258,
      "Ġcategories": 6259,
      "VERSION": 6260,
      "Determine": 6261,
      "seg": 6262,
      "Ġeps": 6263,
      "udent": 6264,
      "catenate": 6265,
      "Ġ],": 6266,
      "(':": 6267,
      "('--": 6268,
      "Ġseg": 6269,
      "ĠNaN": 6270,
      "visible": 6271,
      "threads": 6272,
      "Num": 6273,
      "Ġ).": 6274,
      "attice": 6275,
      "splitext": 6276,
      "Python": 6277,
      "bet": 6278,
      "Ġrecomm": 6279,
      "()),": 6280,
      "phase": 6281,
      "ole": 6282,
      "Ġescape": 6283,
      "('{": 6284,
      "Ġwaiting": 6285,
      "except": 6286,
      "Ġcopied": 6287,
      "categories": 6288,
      "css": 6289,
      "Ġeval": 6290,
      "Ġconfigure": 6291,
      "CI": 6292,
      "OP": 6293,
      "Ġdet": 6294,
      "Ġcause": 6295,
      "Ġboundary": 6296,
      "Reads": 6297,
      "bg": 6298,
      "fft": 6299,
      "hidden": 6300,
      "lang": 6301,
      "ĠPlease": 6302,
      "Keys": 6303,
      "Ġcriteria": 6304,
      "ĠFe": 6305,
      "Ġmig": 6306,
      "Updates": 6307,
      "segments": 6308,
      "ongs": 6309,
      "Ġwrong": 6310,
      "Ġmiddle": 6311,
      "ffset": 6312,
      "push": 6313,
      "prev": 6314,
      "specific": 6315,
      "SM": 6316,
      "ĠTask": 6317,
      "Pass": 6318,
      "ĠMan": 6319,
      "ĠYields": 6320,
      "Ġreduce": 6321,
      "props": 6322,
      "uggest": 6323,
      "Show": 6324,
      "Ġfh": 6325,
      "ĠĠĠĠĠĠĠĠĠĠĠĠĠĠĠĠĠĠĠĠĠĠĠĠĠĠĠĠĠĠĠĠĠĠĠĠĠĠĠĠĠĠĠĠĠĠ": 6326,
      "Retrieves": 6327,
      "Range": 6328,
      "Ġimported": 6329,
      "[:]": 6330,
      ")',": 6331,
      "elem": 6332,
      "ĠOR": 6333,
      "Ġweek": 6334,
      "ONE": 6335,
      "calls": 6336,
      "FIX": 6337,
      "EST": 6338,
      "Mode": 6339,
      "agement": 6340,
      "scribe": 6341,
      "Transform": 6342,
      "lu": 6343,
      "Ġdaemon": 6344,
      "frequency": 6345,
      "inx": 6346,
      "Ġcomma": 6347,
      "Ġsubstit": 6348,
      "existing": 6349,
      "LECT": 6350,
      "poly": 6351,
      "Ġtrip": 6352,
      "hest": 6353,
      "Ġcurr": 6354,
      "ssibly": 6355,
      "vance": 6356,
      "named": 6357,
      "Be": 6358,
      "Max": 6359,
      "ĠSome": 6360,
      "complex": 6361,
      "LOGGER": 6362,
      "Ġcourse": 6363,
      "prob": 6364,
      "Execute": 6365,
      "imension": 6366,
      "ysical": 6367,
      "grad": 6368,
      "Schema": 6369,
      "asarray": 6370,
      "Ġattempts": 6371,
      "Ġsock": 6372,
      "ĠUnion": 6373,
      "Ġprediction": 6374,
      "OF": 6375,
      "ĠAWS": 6376,
      "stems": 6377,
      "imple": 6378,
      "Ġeditor": 6379,
      "ientation": 6380,
      "lour": 6381,
      "Ġlocale": 6382,
      "Ġloading": 6383,
      "Ġcoefficients": 6384,
      "Ġbrowser": 6385,
      "timedelta": 6386,
      "Ġoccurs": 6387,
      "Ġchoice": 6388,
      "HER": 6389,
      "Ġsk": 6390,
      "Ġcontact": 6391,
      "(\"/": 6392,
      "Ġlang": 6393,
      "ĠClass": 6394,
      "orch": 6395,
      "Ġcorresponds": 6396,
      "Ġvisual": 6397,
      "Tuple": 6398,
      "Ġam": 6399,
      "updated": 6400,
      "publish": 6401,
      "Ġhit": 6402,
      "FIEL": 6403,
      ".%": 6404,
      "Union": 6405,
      "]).": 6406,
      "Ġplan": 6407,
      "Ġlogged": 6408,
      "Ġinterest": 6409,
      "SIG": 6410,
      "atched": 6411,
      "alan": 6412,
      "Ġdecla": 6413,
      "video": 6414,
      "mot": 6415,
      "Ġgenes": 6416,
      "Ġpickle": 6417,
      "RR": 6418,
      "AND": 6419,
      "Results": 6420,
      "wt": 6421,
      "det": 6422,
      "Ġgeneral": 6423,
      "clip": 6424,
      "Ġpush": 6425,
      "Ġbackup": 6426,
      "coordinates": 6427,
      "Channel": 6428,
      "Ġsid": 6429,
      "Ġrv": 6430,
      "Ġtransformation": 6431,
      "Ġguess": 6432,
      "Ġencrypted": 6433,
      "Ġpredicate": 6434,
      "Ġrevision": 6435,
      "Ġperm": 6436,
      "Ġcomparison": 6437,
      "ffi": 6438,
      "try": 6439,
      "ĠTest": 6440,
      "ĠCSV": 6441,
      "aster": 6442,
      "Ġpoly": 6443,
      "ĠSend": 6444,
      "Ġcorrectly": 6445,
      "mc": 6446,
      "levels": 6447,
      "ĠĠĠĠĠĠĠĠĠĠĠĠčĊ": 6448,
      "Ġsil": 6449,
      "rozen": 6450,
      "Ġchoices": 6451,
      "Ġhyper": 6452,
      "chars": 6453,
      "ĠWeb": 6454,
      "deploy": 6455,
      "riend": 6456,
      "Internal": 6457,
      "gorical": 6458,
      "Ġpie": 6459,
      "Ġestimate": 6460,
      "tol": 6461,
      "}]": 6462,
      "dec": 6463,
      "Ġ'{}'": 6464,
      "sheet": 6465,
      "Ġ=>": 6466,
      "relative": 6467,
      "some": 6468,
      "Ġminion": 6469,
      "Ġtests": 6470,
      "AX": 6471,
      "gamma": 6472,
      "Ġable": 6473,
      "Ġsyn": 6474,
      "marker": 6475,
      "Su": 6476,
      "^{": 6477,
      "Ġquote": 6478,
      "Ġdesign": 6479,
      "ĠSource": 6480,
      "Ġterminal": 6481,
      "splitlines": 6482,
      "40": 6483,
      "Ġranges": 6484,
      "ĠReferences": 6485,
      "88": 6486,
      "bad": 6487,
      "menu": 6488,
      "rices": 6489,
      "Ġtesting": 6490,
      "supports": 6491,
      ")\\": 6492,
      "Ġwhitespace": 6493,
      "ĠContent": 6494,
      "Fetch": 6495,
      "Ġsizes": 6496,
      "Ġev": 6497,
      "phinx": 6498,
      "Ġwhite": 6499,
      "Ġproperly": 6500,
      "Ġroles": 6501,
      "Ġlig": 6502,
      "Copy": 6503,
      "Ġtraject": 6504,
      "Ġanswer": 6505,
      "Cache": 6506,
      "sin": 6507,
      "strftime": 6508,
      "valuate": 6509,
      "ĠSequence": 6510,
      "Ġti": 6511,
      "Ġbias": 6512,
      "projects": 6513,
      "With": 6514,
      "asing": 6515,
      "ior": 6516,
      "Ġquestion": 6517,
      "packet": 6518,
      "ĠPermissionDenied": 6519,
      "duplic": 6520,
      "Ġinstrument": 6521,
      "TED": 6522,
      "gap": 6523,
      "crement": 6524,
      "Ġmyminion": 6525,
      "fire": 6526,
      "Ġsuitable": 6527,
      "Ġaffect": 6528,
      "Ġnewly": 6529,
      "AGS": 6530,
      "ĠBlock": 6531,
      "primary": 6532,
      "Ġconstants": 6533,
      "Wrapper": 6534,
      "Ġrouter": 6535,
      "aily": 6536,
      "Ġtransfer": 6537,
      "Ġdispatch": 6538,
      "Ġvisible": 6539,
      "Length": 6540,
      "Ġnumer": 6541,
      "ĠHttp": 6542,
      "Match": 6543,
      "logs": 6544,
      "ilon": 6545,
      "major": 6546,
      "ĠExtract": 6547,
      "Fail": 6548,
      "ising": 6549,
      "Ġprovides": 6550,
      "requencies": 6551,
      "dc": 6552,
      "inja": 6553,
      "pec": 6554,
      "Ġ##": 6555,
      "ranches": 6556,
      "Ġoccurred": 6557,
      "][\"": 6558,
      "ueprint": 6559,
      "iguous": 6560,
      "Ġdisabled": 6561,
      "ĠConnection": 6562,
      "Ġactor": 6563,
      "Ġmu": 6564,
      "Ġdigits": 6565,
      "okies": 6566,
      "lst": 6567,
      "orization": 6568,
      "agraph": 6569,
      "Header": 6570,
      "Container": 6571,
      "Ġhandles": 6572,
      "MAP": 6573,
      "enario": 6574,
      "Ġformatting": 6575,
      "cular": 6576,
      "Only": 6577,
      "Dist": 6578,
      "SQL": 6579,
      "vertices": 6580,
      "Ġmuch": 6581,
      "95": 6582,
      "Color": 6583,
      "Ġfallback": 6584,
      "Ġhome": 6585,
      "Ġcompression": 6586,
      "Ġpolygon": 6587,
      "aging": 6588,
      "many": 6589,
      "wave": 6590,
      "ucture": 6591,
      "Ġmanifest": 6592,
      "Ġhyd": 6593,
      "........": 6594,
      "Split": 6595,
      "ĠNormal": 6596,
      "ĠĠĠĠĠĠĠĠĠĠĠĠĠĠĠĠĠĠĠĠĠĠĠĠĠĠĠĠĠĠĠĠĠĠĠĠĠĠĠĠĠĠĠĠĠĠĠ": 6597,
      "Decode": 6598,
      "riptor": 6599,
      "Ġreplacement": 6600,
      "LINE": 6601,
      "ational": 6602,
      "Args": 6603,
      "amera": 6604,
      ",'": 6605,
      "ĠUTC": 6606,
      "etermines": 6607,
      "mid": 6608,
      "repository": 6609,
      "Ġloader": 6610,
      "luster": 6611,
      "ĠAR": 6612,
      "Ġnoqa": 6613,
      "inalg": 6614,
      "Label": 6615,
      "Module": 6616,
      "](": 6617,
      "Ġcomputation": 6618,
      "Ġvals": 6619,
      "ĠDelete": 6620,
      "Ġdisplayed": 6621,
      "oauth": 6622,
      "Ġnative": 6623,
      "ĠOption": 6624,
      "Ġtransformed": 6625,
      "CESS": 6626,
      "\"'": 6627,
      "Ġextended": 6628,
      "CTION": 6629,
      "vcf": 6630,
      "umed": 6631,
      "Ġselector": 6632,
      "Ġestimated": 6633,
      "Called": 6634,
      "eq": 6635,
      "Ġcred": 6636,
      "Ġcompatibility": 6637,
      "('{}": 6638,
      "Ġ*=": 6639,
      "Ġcoroutine": 6640,
      "Ġpositional": 6641,
      "olders": 6642,
      "Ġsv": 6643,
      "makedirs": 6644,
      "oted": 6645,
      "click": 6646,
      "illi": 6647,
      "ĠAdds": 6648,
      "CODE": 6649,
      "([\"": 6650,
      "Ġexchange": 6651,
      "perm": 6652,
      "CRE": 6653,
      "servers": 6654,
      "ee": 6655,
      "ante": 6656,
      "Ext": 6657,
      "Apply": 6658,
      "button": 6659,
      "Ġconflict": 6660,
      "Ġfasta": 6661,
      "Ġbinding": 6662,
      "isinstance": 6663,
      "Ġchosen": 6664,
      "Decorator": 6665,
      "Ġtail": 6666,
      "roles": 6667,
      "assert": 6668,
      "ipher": 6669,
      "Ġfragment": 6670,
      "ĠMay": 6671,
      "Ġpressure": 6672,
      "fw": 6673,
      "Ġbounding": 6674,
      "PUT": 6675,
      "NotFoundError": 6676,
      "GE": 6677,
      "hn": 6678,
      "Ġfurther": 6679,
      "Example": 6680,
      "bb": 6681,
      "tp": 6682,
      "Ġtoler": 6683,
      "HEAD": 6684,
      "Ġ---------": 6685,
      "Ġlisted": 6686,
      "double": 6687,
      "ledge": 6688,
      "ARNING": 6689,
      "Ġms": 6690,
      "Ġplane": 6691,
      "sequences": 6692,
      "anguages": 6693,
      "Ġrecipi": 6694,
      "Mark": 6695,
      "llo": 6696,
      "Ġcombined": 6697,
      "Min": 6698,
      "Ġurls": 6699,
      "Ġcycle": 6700,
      "RPC": 6701,
      "Ġ14": 6702,
      "Ge": 6703,
      "Property": 6704,
      "lacklist": 6705,
      "sequ": 6706,
      "Ġpred": 6707,
      "Ġappended": 6708,
      "flat": 6709,
      "ĠChecks": 6710,
      "WN": 6711,
      "iases": 6712,
      "Ġ64": 6713,
      "pipe": 6714,
      "Ġargparse": 6715,
      "Values": 6716,
      "extensions": 6717,
      "ĠSpecifies": 6718,
      "Ġgame": 6719,
      "Execution": 6720,
      "AME": 6721,
      "Ġserialize": 6722,
      "vlan": 6723,
      ")`": 6724,
      "nsupported": 6725,
      "written": 6726,
      "Ġtimedelta": 6727,
      "Ġformatter": 6728,
      "diffe": 6729,
      "[(": 6730,
      "tc": 6731,
      "sel": 6732,
      "ĠUses": 6733,
      "angles": 6734,
      "Ġopened": 6735,
      "74": 6736,
      "TA": 6737,
      "td": 6738,
      "acter": 6739,
      "solution": 6740,
      "scores": 6741,
      "Ġcar": 6742,
      "chrom": 6743,
      "figure": 6744,
      "Ġincoming": 6745,
      "watch": 6746,
      "--+": 6747,
      "ĠEnd": 6748,
      "br": 6749,
      "Ġvec": 6750,
      "sible": 6751,
      ")-": 6752,
      "Ġbank": 6753,
      "Ġports": 6754,
      "findall": 6755,
      "Ġequation": 6756,
      "Ġbroker": 6757,
      "Ġrendered": 6758,
      "measure": 6759,
      "vocab": 6760,
      "ventory": 6761,
      "pout": 6762,
      "ĠDO": 6763,
      "TypeError": 6764,
      "Ġrestrict": 6765,
      "simple": 6766,
      "DATE": 6767,
      "ĠDate": 6768,
      "ĠDist": 6769,
      "ĠND": 6770,
      "Ġ255": 6771,
      "pin": 6772,
      "Ġinterpolation": 6773,
      "New": 6774,
      "erial": 6775,
      "audio": 6776,
      "lette": 6777,
      "Ġdepends": 6778,
      "locations": 6779,
      "Ġsucce": 6780,
      "ides": 6781,
      "ĠTrace": 6782,
      "Ġcanonical": 6783,
      "Ġbuff": 6784,
      "Ġhandled": 6785,
      "Queue": 6786,
      "onent": 6787,
      "Ġhaving": 6788,
      "vidence": 6789,
      "Ġobserved": 6790,
      "yles": 6791,
      "Proxy": 6792,
      "ĠHowever": 6793,
      "Ġcatch": 6794,
      "chr": 6795,
      "Ġpg": 6796,
      "Ġvariance": 6797,
      "expect": 6798,
      "Location": 6799,
      "Ġdetected": 6800,
      "Ġ13": 6801,
      "licies": 6802,
      "dictionary": 6803,
      "tection": 6804,
      "ampa": 6805,
      "aker": 6806,
      "AF": 6807,
      "Host": 6808,
      "ordered": 6809,
      "Ġ25": 6810,
      "Ġaccepts": 6811,
      "ĠStream": 6812,
      "Ġbus": 6813,
      "AUT": 6814,
      "nx": 6815,
      "Ġdeclar": 6816,
      "ĠParameter": 6817,
      "Ġlarger": 6818,
      "Ġattachment": 6819,
      "Ġcandidates": 6820,
      "Ġalle": 6821,
      "Ġprops": 6822,
      "program": 6823,
      ":-": 6824,
      "basic": 6825,
      "Ġthings": 6826,
      "decimal": 6827,
      "Ġsla": 6828,
      "ĠLine": 6829,
      "ĠAllow": 6830,
      "ampaign": 6831,
      "else": 6832,
      "ĠPlot": 6833,
      "curacy": 6834,
      "ĠIPv": 6835,
      "padding": 6836,
      "bra": 6837,
      "ĠĠĠĠĠĠĠĠĠĠĠĠĠĠĠĠĠĠĠĠĠĠĠĠĠĠĠĠĠĠĠĠĠĠĠĠĠĠĠĠĠĠĠĠĠĠĠĠĠĠĠĠĠĠĠĠĠĠĠĠĠĠĠĠ": 6838,
      "aking": 6839,
      "Multi": 6840,
      "Ġssl": 6841,
      "aped": 6842,
      "RED": 6843,
      "ĠColumn": 6844,
      "qs": 6845,
      "ensure": 6846,
      "entities": 6847,
      "06": 6848,
      "Configuration": 6849,
      "SCII": 6850,
      "fficient": 6851,
      "Gra": 6852,
      "Ġatoms": 6853,
      "Ġ-----------": 6854,
      "ĠFormat": 6855,
      "div": 6856,
      "Ġcomplet": 6857,
      "Exit": 6858,
      "super": 6859,
      "Ġrc": 6860,
      "plain": 6861,
      "patterns": 6862,
      "Ġdescribed": 6863,
      "Ġhigher": 6864,
      "Ġndim": 6865,
      "otype": 6866,
      "distribution": 6867,
      "ĠCON": 6868,
      "}/{": 6869,
      "vided": 6870,
      "Ġgetting": 6871,
      "ibration": 6872,
      "Feature": 6873,
      "tuples": 6874,
      "Authentic": 6875,
      "79": 6876,
      "algorithm": 6877,
      "Rece": 6878,
      "uffle": 6879,
      "08": 6880,
      "UST": 6881,
      "descriptor": 6882,
      "Ġreached": 6883,
      "adjust": 6884,
      "ptime": 6885,
      "aper": 6886,
      "controller": 6887,
      "processor": 6888,
      "Ġ\"'": 6889,
      "fully": 6890,
      "ĠGets": 6891,
      "76": 6892,
      "Agent": 6893,
      "Try": 6894,
      "recv": 6895,
      "Ut": 6896,
      "Ġfront": 6897,
      "Ab": 6898,
      "sensitive": 6899,
      "standard": 6900,
      "Ġomitted": 6901,
      "']),": 6902,
      "Ġmoment": 6903,
      "plots": 6904,
      "ĠRetrieve": 6905,
      "dm": 6906,
      "Ġpan": 6907,
      "itch": 6908,
      "bus": 6909,
      "Ġsolver": 6910,
      "cks": 6911,
      "legal": 6912,
      "router": 6913,
      "enter": 6914,
      "ulative": 6915,
      "price": 6916,
      "Ġassignment": 6917,
      "Ġcompressed": 6918,
      "chunks": 6919,
      "You": 6920,
      "Ġcancel": 6921,
      "Ġ'#": 6922,
      "Ġmeas": 6923,
      "Ġsleep": 6924,
      "Ġidentified": 6925,
      ">\\": 6926,
      "Ġgeneric": 6927,
      "spa": 6928,
      "ĠCom": 6929,
      "Ġprobably": 6930,
      "dp": 6931,
      "repe": 6932,
      "Ġends": 6933,
      "Ġconfirm": 6934,
      "Ġmaking": 6935,
      "Ġsites": 6936,
      "Ġindexed": 6937,
      "regions": 6938,
      "isode": 6939,
      "Ġ'.'": 6940,
      "Cloud": 6941,
      "Admin": 6942,
      "CA": 6943,
      "atives": 6944,
      "Pool": 6945,
      "wiki": 6946,
      "ij": 6947,
      "Ġfiltering": 6948,
      "Ġordering": 6949,
      "Change": 6950,
      "dep": 6951,
      "Ġdep": 6952,
      "lineno": 6953,
      "OUT": 6954,
      "Ġgenome": 6955,
      "Ġrelationship": 6956,
      "Out": 6957,
      "Operation": 6958,
      "Target": 6959,
      "game": 6960,
      "rgb": 6961,
      "energy": 6962,
      "Ġincrement": 6963,
      "Ġsmaller": 6964,
      "Ġevaluation": 6965,
      "GP": 6966,
      "linalg": 6967,
      "reci": 6968,
      "Ġconvent": 6969,
      "Ġdefines": 6970,
      "Ġchat": 6971,
      "lify": 6972,
      "Ġneg": 6973,
      "Ġiterate": 6974,
      "wall": 6975,
      "deepcopy": 6976,
      "digit": 6977,
      "Mem": 6978,
      "ĠSpecify": 6979,
      "sertionError": 6980,
      "Ġseveral": 6981,
      "Port": 6982,
      "pars": 6983,
      "contract": 6984,
      "Ġintersection": 6985,
      "speed": 6986,
      "Ġexpressions": 6987,
      "Ġbelong": 6988,
      "plus": 6989,
      "Ġreadable": 6990,
      "Ġgrade": 6991,
      "IF": 6992,
      "_%": 6993,
      "ital": 6994,
      "Ġsing": 6995,
      "Ġstypes": 6996,
      "Ġetree": 6997,
      "iles": 6998,
      "ĠAddress": 6999,
      "Formatter": 7000,
      "Ġleading": 7001,
      "tage": 7002,
      "Ġroll": 7003,
      "disable": 7004,
      "Ġok": 7005,
      "Ġstride": 7006,
      "Order": 7007,
      ",),": 7008,
      "SR": 7009,
      "ĠSign": 7010,
      "STAT": 7011,
      "Meta": 7012,
      "Ġthing": 7013,
      "ipv": 7014,
      "cycle": 7015,
      "ims": 7016,
      "Reader": 7017,
      "six": 7018,
      "inations": 7019,
      "sk": 7020,
      "VM": 7021,
      "lar": 7022,
      "getter": 7023,
      "Ġlengths": 7024,
      "ini": 7025,
      "ĠRPC": 7026,
      "raft": 7027,
      "ĠEnsure": 7028,
      "Ali": 7029,
      "Ġclone": 7030,
      "Ġspin": 7031,
      "Ġinserted": 7032,
      "bolic": 7033,
      "Ġclassification": 7034,
      "voice": 7035,
      "bottom": 7036,
      "Ġtimer": 7037,
      "ĠSE": 7038,
      "tected": 7039,
      "Does": 7040,
      "21": 7041,
      "Ġtrying": 7042,
      "country": 7043,
      "ATCH": 7044,
      "sence": 7045,
      "cel": 7046,
      ">`_": 7047,
      "Ġobtained": 7048,
      "adapter": 7049,
      "DR": 7050,
      "Ġdd": 7051,
      "Ġwon": 7052,
      "osite": 7053,
      "va": 7054,
      "Ġ'/'": 7055,
      "cred": 7056,
      "Ġten": 7057,
      "Ġ'':": 7058,
      "subnet": 7059,
      "Pub": 7060,
      "inc": 7061,
      "sender": 7062,
      "Ġexpon": 7063,
      "ĠThen": 7064,
      "ĠInteger": 7065,
      "objective": 7066,
      "Ġshard": 7067,
      "31": 7068,
      "Ids": 7069,
      "chat": 7070,
      "Ġusually": 7071,
      "dispatch": 7072,
      "Ġvars": 7073,
      "LS": 7074,
      "udo": 7075,
      "setting": 7076,
      "ĠInitial": 7077,
      "Ġsignals": 7078,
      "ollow": 7079,
      "ART": 7080,
      "Ġroutine": 7081,
      "bre": 7082,
      "Ġest": 7083,
      "ĠSH": 7084,
      "artesian": 7085,
      "Ġencoder": 7086,
      "Ġrev": 7087,
      "ingerprint": 7088,
      "wcs": 7089,
      "Ġactivity": 7090,
      "Lookup": 7091,
      "Ġmagic": 7092,
      "Ġtxt": 7093,
      "arante": 7094,
      "intervals": 7095,
      "Ġreach": 7096,
      "Any": 7097,
      "priority": 7098,
      "Ġwalk": 7099,
      "ĠVer": 7100,
      "nested": 7101,
      "Ġoverla": 7102,
      "sembly": 7103,
      "Ġcrypt": 7104,
      "Ġmid": 7105,
      "ĠToken": 7106,
      "bias": 7107,
      "effect": 7108,
      "uer": 7109,
      "strict": 7110,
      "Ġbra": 7111,
      "Ġ*,": 7112,
      "Ġupon": 7113,
      "Ġcallbacks": 7114,
      "etc": 7115,
      "Ġdynamic": 7116,
      "coding": 7117,
      "JE": 7118,
      "zure": 7119,
      "ĠTag": 7120,
      "]}": 7121,
      "Ġtax": 7122,
      "Ġfire": 7123,
      "abilities": 7124,
      "contin": 7125,
      "Ġcwd": 7126,
      "cookie": 7127,
      "Ġmajor": 7128,
      "screen": 7129,
      "connections": 7130,
      "Ġmeasurement": 7131,
      "CB": 7132,
      "NOT": 7133,
      "Ġstrategy": 7134,
      "Ġroom": 7135,
      "ULL": 7136,
      "Ġissues": 7137,
      "cod": 7138,
      "mpy": 7139,
      "maps": 7140,
      "erce": 7141,
      "Ġnearest": 7142,
      "Ġcorrespond": 7143,
      "SCRI": 7144,
      "Ġfw": 7145,
      "Wait": 7146,
      "`).": 7147,
      "gov": 7148,
      "MODE": 7149,
      "sizes": 7150,
      "Ġbbox": 7151,
      "processed": 7152,
      "Ġcorrelation": 7153,
      "matplotlib": 7154,
      "ĠDoes": 7155,
      "Options": 7156,
      "cov": 7157,
      "external": 7158,
      "listdir": 7159,
      "views": 7160,
      "Ġscaling": 7161,
      "Ġhalf": 7162,
      "comments": 7163,
      ":`~.": 7164,
      "etches": 7165,
      "Ġstation": 7166,
      "Ġproduce": 7167,
      "Ġdirs": 7168,
      "ints": 7169,
      "Temp": 7170,
      "Ġsatis": 7171,
      "(\"-": 7172,
      "ĠInitialize": 7173,
      "Ġchars": 7174,
      "iterator": 7175,
      "Ġsubmit": 7176,
      "ticks": 7177,
      "outer": 7178,
      "Ġreferenced": 7179,
      "/.": 7180,
      "Missing": 7181,
      "seudo": 7182,
      "Ġir": 7183,
      "Ġsear": 7184,
      "Ġproblems": 7185,
      "Ġlooking": 7186,
      "exe": 7187,
      "Ġformula": 7188,
      "Ġmacro": 7189,
      "ĠMap": 7190,
      "Ġadapter": 7191,
      "Ġlistener": 7192,
      "ĠIterable": 7193,
      "ike": 7194,
      "peer": 7195,
      "corr": 7196,
      "Ġweighted": 7197,
      "ĠURLs": 7198,
      "Ġgoing": 7199,
      "scalar": 7200,
      "tep": 7201,
      "Ġrho": 7202,
      "cognized": 7203,
      "*(": 7204,
      "XML": 7205,
      "templates": 7206,
      "Ġtolerance": 7207,
      "incip": 7208,
      "Ġcp": 7209,
      "Ġnu": 7210,
      "FORMAT": 7211,
      "Ġtrial": 7212,
      "Ġlooks": 7213,
      "Ġocc": 7214,
      "Ġcum": 7215,
      "Ġservers": 7216,
      "phrase": 7217,
      "executable": 7218,
      "Ġbug": 7219,
      "CDF": 7220,
      "locate": 7221,
      "Ġcoord": 7222,
      "artifact": 7223,
      "places": 7224,
      "Callback": 7225,
      ")],": 7226,
      "resid": 7227,
      "ĠDon": 7228,
      "Ġcalc": 7229,
      "Go": 7230,
      "PT": 7231,
      "ĠPart": 7232,
      "ĠMy": 7233,
      "Normal": 7234,
      "ĠIs": 7235,
      "85": 7236,
      "xi": 7237,
      "Ġpys": 7238,
      "ĠCode": 7239,
      "Ġ{}).": 7240,
      "selector": 7241,
      "aff": 7242,
      "ilename": 7243,
      "Ġspecies": 7244,
      "Ġclusters": 7245,
      "Ġvarious": 7246,
      "Bad": 7247,
      "thresh": 7248,
      "verter": 7249,
      "fixed": 7250,
      "conditions": 7251,
      "+'": 7252,
      "Ġtwe": 7253,
      "urnal": 7254,
      "Ġretries": 7255,
      "mitive": 7256,
      "ĠSave": 7257,
      "ĠDec": 7258,
      "intersection": 7259,
      "Names": 7260,
      "multiple": 7261,
      "ĠAssertionError": 7262,
      "-~": 7263,
      "alect": 7264,
      "deleted": 7265,
      "Ġcm": 7266,
      "rad": 7267,
      "Ġestimator": 7268,
      "Ter": 7269,
      "Ġasc": 7270,
      "Ġembedding": 7271,
      "cancel": 7272,
      "switch": 7273,
      "getLogger": 7274,
      "riendly": 7275,
      "bf": 7276,
      "lid": 7277,
      "Ġgives": 7278,
      "ups": 7279,
      "ĠSSL": 7280,
      "{})": 7281,
      "Ġneighbors": 7282,
      "Ġspectrum": 7283,
      "zz": 7284,
      "learn": 7285,
      "unded": 7286,
      "Ġtrailing": 7287,
      "Control": 7288,
      "Ġmodification": 7289,
      "45": 7290,
      "Ġsquare": 7291,
      "Ġglyph": 7292,
      "Initial": 7293,
      "ĠPol": 7294,
      "================================": 7295,
      "virtual": 7296,
      "syn": 7297,
      "Ġnotes": 7298,
      "ĠRO": 7299,
      "Ġalert": 7300,
      "Ġprovid": 7301,
      "(\"{": 7302,
      "scrib": 7303,
      "Ġproduced": 7304,
      "Ġgamma": 7305,
      "currency": 7306,
      "Mapping": 7307,
      "war": 7308,
      "Ġdeviation": 7309,
      "validation": 7310,
      "ĠLength": 7311,
      "Ġtrim": 7312,
      "pn": 7313,
      "']):": 7314,
      "READ": 7315,
      "Ġalternative": 7316,
      "Ġ\")": 7317,
      "annotation": 7318,
      "Ġ\"<": 7319,
      "Ġdetail": 7320,
      "locity": 7321,
      "Ġasynchronous": 7322,
      "Ensure": 7323,
      "formatted": 7324,
      "ĠVariable": 7325,
      "cells": 7326,
      "peak": 7327,
      "izable": 7328,
      "Ġassessment": 7329,
      "inds": 7330,
      "parents": 7331,
      "absolute": 7332,
      "Ġidentifiers": 7333,
      "kes": 7334,
      "enc": 7335,
      "Ġpillar": 7336,
      "Ġhorizontal": 7337,
      "Back": 7338,
      "Hash": 7339,
      "bundle": 7340,
      "cles": 7341,
      "Ġworkers": 7342,
      "Ġplain": 7343,
      "permissions": 7344,
      "Ġdry": 7345,
      "Char": 7346,
      "untered": 7347,
      "Ġconst": 7348,
      "Ġcompress": 7349,
      "ĠWith": 7350,
      "licable": 7351,
      "scripts": 7352,
      "servation": 7353,
      "eg": 7354,
      "ĠAct": 7355,
      "ĠSN": 7356,
      "Ġremoving": 7357,
      "!\")": 7358,
      "(('": 7359,
      "unset": 7360,
      "Comm": 7361,
      "visit": 7362,
      "Ġmagnitude": 7363,
      "Ġol": 7364,
      "ĠPandas": 7365,
      "moved": 7366,
      "Ġcompile": 7367,
      "composition": 7368,
      "Ġexpanded": 7369,
      "Ġpossibly": 7370,
      "ranges": 7371,
      "ĠHel": 7372,
      "Ġrespectively": 7373,
      "delimit": 7374,
      "ĠDEFAULT": 7375,
      "chanism": 7376,
      "Ġguarante": 7377,
      "Ġassumes": 7378,
      "Core": 7379,
      "lica": 7380,
      "Ġdec": 7381,
      "locals": 7382,
      "\">": 7383,
      "mis": 7384,
      "Ġexcluded": 7385,
      "poses": 7386,
      "Ġregard": 7387,
      "submit": 7388,
      "Ġperformance": 7389,
      "Ġreaction": 7390,
      "datasets": 7391,
      "Ġduplicates": 7392,
      "Ġbelongs": 7393,
      "Ġhours": 7394,
      "OB": 7395,
      "browser": 7396,
      "recurs": 7397,
      "ĠSystem": 7398,
      "arrays": 7399,
      "HERE": 7400,
      "Ġdoing": 7401,
      "minimum": 7402,
      "\"][": 7403,
      "ttributes": 7404,
      "MIN": 7405,
      "Ġplayer": 7406,
      "Ġnx": 7407,
      "validator": 7408,
      "built": 7409,
      "Ġpartitions": 7410,
      "ĠContext": 7411,
      "ĠRaise": 7412,
      "noise": 7413,
      "ĠEnvironment": 7414,
      "alive": 7415,
      "may": 7416,
      "Types": 7417,
      "Ġtun": 7418,
      "experiment": 7419,
      "previous": 7420,
      "velength": 7421,
      "statement": 7422,
      "Ġfollows": 7423,
      "nc": 7424,
      "agger": 7425,
      "Ġunion": 7426,
      "mix": 7427,
      "LED": 7428,
      "Ġgap": 7429,
      "ĠPh": 7430,
      "ĠVersion": 7431,
      "Display": 7432,
      "failure": 7433,
      "Ġobservation": 7434,
      "stage": 7435,
      "Ġdeli": 7436,
      "ubclass": 7437,
      "FIELD": 7438,
      "Ġmappings": 7439,
      "Ġfilled": 7440,
      "Ġstdin": 7441,
      "thers": 7442,
      "Ġmatrices": 7443,
      "dfs": 7444,
      "annotations": 7445,
      "ĠCurrently": 7446,
      "ultiple": 7447,
      "imit": 7448,
      "shared": 7449,
      "LD": 7450,
      "tic": 7451,
      "Ġwallet": 7452,
      "(\".": 7453,
      "Ġreally": 7454,
      "gu": 7455,
      "Ġ'[": 7456,
      "Ġhierarchy": 7457,
      "Uni": 7458,
      "Ġpoll": 7459,
      "Ġprotobuf": 7460,
      "stand": 7461,
      "Ġcovariance": 7462,
      "outfile": 7463,
      "boto": 7464,
      "Ġchoose": 7465,
      "Template": 7466,
      "cnt": 7467,
      "nr": 7468,
      "atoms": 7469,
      "Ġtools": 7470,
      "Ġchart": 7471,
      "ĠConstruct": 7472,
      "Ġpredicted": 7473,
      "ii": 7474,
      ">>>": 7475,
      "ĠPost": 7476,
      "Ġrgb": 7477,
      "formatter": 7478,
      "Ġcompound": 7479,
      "Ġaddition": 7480,
      "ĠConfiguration": 7481,
      "constraints": 7482,
      "union": 7483,
      "oth": 7484,
      "curve": 7485,
      "mediator": 7486,
      "ĠSchema": 7487,
      "Ġclip": 7488,
      "URE": 7489,
      "Ġcipher": 7490,
      "ĠĠĠĠĠĠĠĠĠĠĠĠĠĠĠĠĠĠĠĠĠĠĠĠĠĠĠĠĠĠĠĠĠĠĠĠĠĠĠĠĠĠĠĠĠĠĠĠĠĠĠ": 7491,
      "addresses": 7492,
      "osome": 7493,
      "ERS": 7494,
      "Ġmanually": 7495,
      "duce": 7496,
      "Url": 7497,
      "Ġassum": 7498,
      "specs": 7499,
      "Ġreload": 7500,
      "ĠTarget": 7501,
      "white": 7502,
      "Ġtries": 7503,
      "Ġprocessor": 7504,
      "Ġinvoked": 7505,
      "Ġgeneration": 7506,
      "Generator": 7507,
      "gies": 7508,
      "sol": 7509,
      "Ġ(-": 7510,
      "ĠPack": 7511,
      "Ġmasked": 7512,
      "Ġidentical": 7513,
      "Draw": 7514,
      "NN": 7515,
      "nu": 7516,
      "Ġss": 7517,
      "Ġsen": 7518,
      "Ġworkspace": 7519,
      "}`": 7520,
      "dicts": 7521,
      "Bytes": 7522,
      "-~-~": 7523,
      "appro": 7524,
      "Ġdatastore": 7525,
      "maximum": 7526,
      "ARY": 7527,
      "JECT": 7528,
      "micro": 7529,
      "ĠValues": 7530,
      "ynomial": 7531,
      "Child": 7532,
      "âĢ": 7533,
      "abc": 7534,
      "ittle": 7535,
      "Ġborder": 7536,
      "ught": 7537,
      "CC": 7538,
      "Writes": 7539,
      "ĠIgn": 7540,
      "console": 7541,
      "statements": 7542,
      "fastq": 7543,
      "URI": 7544,
      "arily": 7545,
      "Ġyields": 7546,
      "\"}": 7547,
      "cross": 7548,
      "Ġaliases": 7549,
      "Ġcc": 7550,
      "Ġlst": 7551,
      "ĠĠĠĠĠĠĠĠĠĠĠĠĠĠĠĠĠĠĠĠĠĠĠĠĠĠĠĠĠĠĠĠĠĠĠĠĠĠĠĠĠĠĠĠĠĠĠĠĠ": 7552,
      "Ġscene": 7553,
      "Ġstand": 7554,
      "pointer": 7555,
      "Net": 7556,
      "hips": 7557,
      "Ġquality": 7558,
      "Ġquiet": 7559,
      "rho": 7560,
      "Ġred": 7561,
      "Ġsampler": 7562,
      "STATE": 7563,
      "ornado": 7564,
      "stone": 7565,
      "()}": 7566,
      "odb": 7567,
      "Ġmaint": 7568,
      "Ġserializer": 7569,
      "Ġoverrides": 7570,
      "Ġecho": 7571,
      "clusters": 7572,
      "tau": 7573,
      "Ġextent": 7574,
      "pip": 7575,
      "Ġplots": 7576,
      "ĠLocation": 7577,
      ");": 7578,
      "Ġprotein": 7579,
      "TEXT": 7580,
      "Ġconverts": 7581,
      "Func": 7582,
      "Ġwildcard": 7583,
      "Ġcos": 7584,
      "Ġdeep": 7585,
      "ĠSince": 7586,
      ":`\\": 7587,
      "positions": 7588,
      "located": 7589,
      "Ġconfidence": 7590,
      "Ġreduced": 7591,
      "Ġage": 7592,
      "ormap": 7593,
      "ĠCallable": 7594,
      "manifest": 7595,
      "installed": 7596,
      "Stop": 7597,
      "ĠApi": 7598,
      "Ġcombination": 7599,
      "89": 7600,
      "intext": 7601,
      ".],": 7602,
      "RS": 7603,
      "Ġscheduler": 7604,
      "Ġthresh": 7605,
      "izations": 7606,
      "pay": 7607,
      "Ġoffsets": 7608,
      "Ġlinked": 7609,
      "Ġphone": 7610,
      "CAL": 7611,
      "since": 7612,
      "Ġbalance": 7613,
      "ĠĠĠĠĠĠĠĠĠĠĠĠĠĠĠĠĠĠĠĠĠĠĠĠĠĠĠĠĠĠĠĠĠĠĠĠĠĠĠĠĠĠĠĠĠĠĠĠ": 7614,
      "Ġbytearray": 7615,
      "Ne": 7616,
      "ped": 7617,
      "notify": 7618,
      "equ": 7619,
      "Profile": 7620,
      "uniform": 7621,
      "ĠTraceback": 7622,
      "ios": 7623,
      "Ġpin": 7624,
      "ĠCPU": 7625,
      "Ġouter": 7626,
      "Ġinterfaces": 7627,
      "Rule": 7628,
      "ĠNow": 7629,
      "Ġfold": 7630,
      "Ġpopulation": 7631,
      "dro": 7632,
      "timer": 7633,
      "initions": 7634,
      "Ġtranscript": 7635,
      "flu": 7636,
      "dimensions": 7637,
      "Flow": 7638,
      "mime": 7639,
      "sli": 7640,
      "Ġinject": 7641,
      "constant": 7642,
      "(\"--": 7643,
      "Ġcompiled": 7644,
      "Application": 7645,
      "Ġpredictions": 7646,
      "Ġ:]": 7647,
      "cha": 7648,
      "warnings": 7649,
      "Ġevaluated": 7650,
      "bum": 7651,
      "balance": 7652,
      "cost": 7653,
      "Ġadjac": 7654,
      "Ġbroadcast": 7655,
      "illiseconds": 7656,
      "ĠSort": 7657,
      "iming": 7658,
      "Ġnormalization": 7659,
      "Ġinstanti": 7660,
      ").__": 7661,
      "lt": 7662,
      "hem": 7663,
      "Ġicon": 7664,
      "Insert": 7665,
      "stdin": 7666,
      "compatible": 7667,
      "Grid": 7668,
      "jid": 7669,
      "chemas": 7670,
      "more": 7671,
      "visor": 7672,
      "Ġcutoff": 7673,
      "Ġxy": 7674,
      "Ġgrad": 7675,
      "Ġpercentage": 7676,
      "effs": 7677,
      "coded": 7678,
      "olding": 7679,
      "('[": 7680,
      "Retry": 7681,
      "Ġhighest": 7682,
      "django": 7683,
      "anging": 7684,
      "Cons": 7685,
      "Ġcare": 7686,
      "issue": 7687,
      "Ġmarked": 7688,
      "llegal": 7689,
      "ĠFROM": 7690,
      "hile": 7691,
      "Sum": 7692,
      "usion": 7693,
      "REG": 7694,
      "Factory": 7695,
      "dom": 7696,
      "isk": 7697,
      "Install": 7698,
      "canvas": 7699,
      "SN": 7700,
      "pur": 7701,
      "gered": 7702,
      "TEST": 7703,
      "structions": 7704,
      "!')": 7705,
      "ĠDetermine": 7706,
      "ograph": 7707,
      "west": 7708,
      "DP": 7709,
      "LOW": 7710,
      "Ġvox": 7711,
      "Jo": 7712,
      "Ġfew": 7713,
      "concat": 7714,
      "Ġregistration": 7715,
      "\"{": 7716,
      "icon": 7717,
      "land": 7718,
      "rdf": 7719,
      "Ġbatches": 7720,
      "REQU": 7721,
      "calculate": 7722,
      "candidate": 7723,
      "fh": 7724,
      "rp": 7725,
      "subset": 7726,
      "callbacks": 7727,
      "serializer": 7728,
      "Matrix": 7729,
      "inct": 7730,
      "izers": 7731,
      "Ġcalendar": 7732,
      "Ġzoom": 7733,
      "ĠReference": 7734,
      "59": 7735,
      "fpath": 7736,
      "activity": 7737,
      "Ġauthenticated": 7738,
      "Ġlight": 7739,
      "hard": 7740,
      "ĠUUID": 7741,
      "Ġsoft": 7742,
      "ĠJob": 7743,
      "Ġrendering": 7744,
      "cluding": 7745,
      "Ġmeaning": 7746,
      "TYPES": 7747,
      "ĠAzure": 7748,
      "Ġens": 7749,
      "ĠDevice": 7750,
      "separated": 7751,
      "Ġmail": 7752,
      "Ġ|=": 7753,
      "compressed": 7754,
      "ĠConverts": 7755,
      "when": 7756,
      "Ġops": 7757,
      "examples": 7758,
      "('<": 7759,
      "formats": 7760,
      "retries": 7761,
      "Ġtempfile": 7762,
      "Exp": 7763,
      "Ġcapture": 7764,
      "poll": 7765,
      "training": 7766,
      "\"%": 7767,
      "EC": 7768,
      "acl": 7769,
      "Ġrecur": 7770,
      "locale": 7771,
      "Ġmicro": 7772,
      "vertex": 7773,
      "Ġplotting": 7774,
      "Ġpreferred": 7775,
      "Ġclients": 7776,
      "ĠPri": 7777,
      "Ġnewline": 7778,
      "numbers": 7779,
      "LOCK": 7780,
      "average": 7781,
      "Ġints": 7782,
      "Cursor": 7783,
      "Ġreversed": 7784,
      "Ġissubclass": 7785,
      "Iteration": 7786,
      "Ġdetermines": 7787,
      "Ġ({": 7788,
      "errno": 7789,
      "parsers": 7790,
      "VICE": 7791,
      "cv": 7792,
      "zed": 7793,
      "lips": 7794,
      "unity": 7795,
      "Ġqs": 7796,
      "Ġtreated": 7797,
      "impl": 7798,
      "sites": 7799,
      "star": 7800,
      "Ġothers": 7801,
      "001": 7802,
      "neg": 7803,
      "serialized": 7804,
      "RC": 7805,
      "Ġjs": 7806,
      "aming": 7807,
      "Ġspatial": 7808,
      "Ġclosest": 7809,
      "finite": 7810,
      "=''": 7811,
      "gl": 7812,
      "analy": 7813,
      "Ġance": 7814,
      "limits": 7815,
      "Ġfar": 7816,
      "Ġzeros": 7817,
      "Ġpropag": 7818,
      "Ġtol": 7819,
      "Ġwindows": 7820,
      "Ġhydpy": 7821,
      "ĠPub": 7822,
      "Ġintended": 7823,
      "ĠArgument": 7824,
      "subscription": 7825,
      "Lib": 7826,
      "rename": 7827,
      "reads": 7828,
      "precision": 7829,
      "two": 7830,
      "Ġinstruction": 7831,
      "ĠPage": 7832,
      "dataframe": 7833,
      "__))": 7834,
      "Ġuniform": 7835,
      "MQ": 7836,
      "Merge": 7837,
      "Vis": 7838,
      "Oper": 7839,
      "same": 7840,
      "rich": 7841,
      "background": 7842,
      "green": 7843,
      "2000": 7844,
      "Ġpt": 7845,
      "Ġlic": 7846,
      "404": 7847,
      "Ġbg": 7848,
      "\",\"": 7849,
      "Ġprinted": 7850,
      "Ġargv": 7851,
      "ĠTakes": 7852,
      "Ġmaybe": 7853,
      "xs": 7854,
      "ysql": 7855,
      "issues": 7856,
      "workers": 7857,
      "Ġlikely": 7858,
      "Loads": 7859,
      "xc": 7860,
      "ĠRGB": 7861,
      "Ġ18": 7862,
      "Ġremoves": 7863,
      "Ġ\"\",": 7864,
      "Ġlineno": 7865,
      "ĠFIX": 7866,
      "AV": 7867,
      "Clear": 7868,
      "must": 7869,
      "Ġbed": 7870,
      "')):": 7871,
      "(\"{}": 7872,
      "collections": 7873,
      "65": 7874,
      "vor": 7875,
      "Ġcores": 7876,
      "mmar": 7877,
      "Param": 7878,
      "Ġinitialization": 7879,
      "Ġ2016": 7880,
      "alancer": 7881,
      "Ġdeclared": 7882,
      "Ġworld": 7883,
      "readline": 7884,
      "Required": 7885,
      "Ġdistances": 7886,
      "Ġangles": 7887,
      "Option": 7888,
      "href": 7889,
      "lags": 7890,
      "gsize": 7891,
      "Ġxrange": 7892,
      "ĠOptions": 7893,
      "ĠDirectory": 7894,
      "Builder": 7895,
      "Please": 7896,
      "_'": 7897,
      "Ġplease": 7898,
      "Ġthro": 7899,
      "inator": 7900,
      "Ġhref": 7901,
      "Ġbasename": 7902,
      "ĠOptionally": 7903,
      "ĠTemplate": 7904,
      "fr": 7905,
      "hparams": 7906,
      "java": 7907,
      "Ġfg": 7908,
      "Ġinline": 7909,
      "course": 7910,
      "tax": 7911,
      "COM": 7912,
      "Interface": 7913,
      "lasticsearch": 7914,
      "Ġtenant": 7915,
      "Ġbulk": 7916,
      "Timestamp": 7917,
      "Render": 7918,
      "lobs": 7919,
      "negative": 7920,
      "Ġlearning": 7921,
      "ĠGO": 7922,
      "Ġlargest": 7923,
      "bbox": 7924,
      "Ġassets": 7925,
      "Ġqubits": 7926,
      "Ġapplicable": 7927,
      "INTER": 7928,
      "('/')": 7929,
      "Ġboard": 7930,
      "astropy": 7931,
      "Ġcmap": 7932,
      "ĠLabel": 7933,
      "Ġencountered": 7934,
      "SELECT": 7935,
      "Ġfollowed": 7936,
      "pdb": 7937,
      "xis": 7938,
      "Ġtell": 7939,
      "byref": 7940,
      "Ġgenerates": 7941,
      "multip": 7942,
      "nipp": 7943,
      "Ġobservations": 7944,
      "trigger": 7945,
      "Ġklass": 7946,
      "Ġshown": 7947,
      "CHE": 7948,
      "Ġcleanup": 7949,
      "MT": 7950,
      "igure": 7951,
      "Ġfloating": 7952,
      "Ġvalidated": 7953,
      "Ġdefining": 7954,
      "Ġ\"\")": 7955,
      "latitude": 7956,
      "VALUE": 7957,
      "Popen": 7958,
      "imizer": 7959,
      "Failure": 7960,
      "did": 7961,
      "ĠCor": 7962,
      "numeric": 7963,
      "cally": 7964,
      "runner": 7965,
      "toolkit": 7966,
      "PM": 7967,
      "utures": 7968,
      "ĠAb": 7969,
      "ĠAnd": 7970,
      "Ġ``\"": 7971,
      "Ġneur": 7972,
      "Ġconsistent": 7973,
      "Ġrecommended": 7974,
      "Ġcr": 7975,
      "aliases": 7976,
      "ĠDocument": 7977,
      "Ġgrouped": 7978,
      "Directory": 7979,
      "ĠRecord": 7980,
      "imuth": 7981,
      "configure": 7982,
      "********": 7983,
      "Ġeigen": 7984,
      "RF": 7985,
      "cator": 7986,
      "Ġfour": 7987,
      "deps": 7988,
      "degree": 7989,
      "Ġlocated": 7990,
      "Ġminor": 7991,
      "Ġexpired": 7992,
      "SKIP": 7993,
      "yy": 7994,
      "ĠAST": 7995,
      "Ġstreams": 7996,
      "ributed": 7997,
      "requirements": 7998,
      "ners": 7999,
      "Ġsubsequ": 8000,
      "Descriptor": 8001,
      "Ġcoefficient": 8002,
      "GO": 8003,
      "Ġaux": 8004,
      "dients": 8005,
      "Ġosid": 8006,
      "Ġrefer": 8007,
      "contains": 8008,
      "Ġconfigs": 8009,
      "Ġconvention": 8010,
      "Ġdeal": 8011,
      "Ġleaf": 8012,
      "ansion": 8013,
      "ĠUnique": 8014,
      "VALID": 8015,
      "ĠAssume": 8016,
      "traceback": 8017,
      "Ġindependent": 8018,
      "Ġ[{'": 8019,
      "'})": 8020,
      "GR": 8021,
      "alchemy": 8022,
      "Ġrestore": 8023,
      "ĠStore": 8024,
      "Ġcheckpoint": 8025,
      "Ġdebugging": 8026,
      "Ed": 8027,
      "Ġide": 8028,
      "Ġraster": 8029,
      "hier": 8030,
      "Ġdefaultdict": 8031,
      "Ġcustomer": 8032,
      "'ve": 8033,
      "38": 8034,
      "Ġgenerating": 8035,
      "choices": 8036,
      "Ġarticle": 8037,
      "SY": 8038,
      "pull": 8039,
      "zoom": 8040,
      "etched": 8041,
      "509": 8042,
      "ium": 8043,
      "wrapped": 8044,
      "Ġer": 8045,
      "stor": 8046,
      "['_": 8047,
      "ĠCustom": 8048,
      "geom": 8049,
      "Quantity": 8050,
      "cutoff": 8051,
      "ĠGoogle": 8052,
      "/{}": 8053,
      "Ġvlan": 8054,
      "ĠSession": 8055,
      "Description": 8056,
      "->": 8057,
      "UI": 8058,
      "USE": 8059,
      "mol": 8060,
      "Ġanchor": 8061,
      "()).": 8062,
      "ĠSSH": 8063,
      "reddit": 8064,
      "Ġblocking": 8065,
      "37": 8066,
      "Ġpdf": 8067,
      "usr": 8068,
      "Calculates": 8069,
      "Rel": 8070,
      "Ġhold": 8071,
      "shard": 8072,
      "Ġticket": 8073,
      "07": 8074,
      "HI": 8075,
      "))]": 8076,
      "Ġroutes": 8077,
      "ĠUsing": 8078,
      "Ġupdating": 8079,
      "Policy": 8080,
      "NI": 8081,
      "Ġfinish": 8082,
      "Ġ1024": 8083,
      "pixel": 8084,
      "ĠIndic": 8085,
      "Runs": 8086,
      "'d": 8087,
      "]',": 8088,
      "means": 8089,
      "Ġpersist": 8090,
      "Ġorganization": 8091,
      "lets": 8092,
      "Ġprobabilities": 8093,
      "SPACE": 8094,
      "ExecutionError": 8095,
      "mx": 8096,
      "Ġjo": 8097,
      "Ġrename": 8098,
      "ripts": 8099,
      "Ġhad": 8100,
      "Ġendpoints": 8101,
      "Ġindicator": 8102,
      "Ġcoverage": 8103,
      "ĠASCII": 8104,
      "beat": 8105,
      "Computes": 8106,
      "Ġderivative": 8107,
      ":\"": 8108,
      "Post": 8109,
      "Ġemit": 8110,
      "quared": 8111,
      "Ġsudo": 8112,
      "Ġcommunic": 8113,
      "ocus": 8114,
      "Ġvisit": 8115,
      "ificant": 8116,
      "ik": 8117,
      "deg": 8118,
      "transition": 8119,
      "Ġflu": 8120,
      "specified": 8121,
      "Ġfluxes": 8122,
      "Ġfu": 8123,
      "checks": 8124,
      "transpose": 8125,
      "AUTH": 8126,
      "And": 8127,
      "MC": 8128,
      "fied": 8129,
      "listen": 8130,
      "quant": 8131,
      "Ġpreserve": 8132,
      "genome": 8133,
      "encoder": 8134,
      "sdk": 8135,
      "=',": 8136,
      "ĠSu": 8137,
      "processes": 8138,
      "queryset": 8139,
      "Pos": 8140,
      "Position": 8141,
      "ev": 8142,
      "detail": 8143,
      "peg": 8144,
      "pread": 8145,
      "Local": 8146,
      "Ġverbosity": 8147,
      "NotExist": 8148,
      "Ġscopes": 8149,
      "ĠUTF": 8150,
      "Op": 8151,
      "Takes": 8152,
      "lest": 8153,
      "Ġcss": 8154,
      "lace": 8155,
      "ĠOAuth": 8156,
      "leton": 8157,
      "ALI": 8158,
      "city": 8159,
      "ĠFlag": 8160,
      "Ġcombine": 8161,
      "hooks": 8162,
      "Ġrepeat": 8163,
      "angular": 8164,
      "ĠExtra": 8165,
      "Ġextend": 8166,
      "ĠColor": 8167,
      "Ġneighbor": 8168,
      "za": 8169,
      "Ġinfer": 8170,
      "Ġlisting": 8171,
      "taint": 8172,
      "ĠĠĠĠĠĠĠĠĠĠĠĠĠĠĠĠĠĠĠĠĠĠĠĠĠĠĠĠĠĠĠĠĠĠĠĠĠĠĠĠĠĠĠĠĠĠĠĠĠĠ": 8173,
      "Ġ------------": 8174,
      "ĠAND": 8175,
      "Ġdeta": 8176,
      "Ġfaster": 8177,
      "enchmark": 8178,
      "raries": 8179,
      "Ġaff": 8180,
      "localhost": 8181,
      "Ġvariants": 8182,
      "Ġ90": 8183,
      "Close": 8184,
      "Ġrepos": 8185,
      "ctl": 8186,
      "roke": 8187,
      "ĠCF": 8188,
      "apps": 8189,
      "ifies": 8190,
      "crypto": 8191,
      "zer": 8192,
      "ĠRef": 8193,
      "ĠSFrame": 8194,
      "clone": 8195,
      "Ġtranslate": 8196,
      "Account": 8197,
      "ĠBu": 8198,
      "Ġdependent": 8199,
      "Ġesc": 8200,
      "ĠDet": 8201,
      "Ġbases": 8202,
      "Web": 8203,
      ")+": 8204,
      "BY": 8205,
      "Ġeg": 8206,
      "team": 8207,
      "Ġ[('": 8208,
      "Ġitertools": 8209,
      "Ġembedded": 8210,
      "Sc": 8211,
      "Allow": 8212,
      "gateway": 8213,
      "Ġdims": 8214,
      "ased": 8215,
      "({\"": 8216,
      "Stack": 8217,
      "ĠFAST": 8218,
      "Ġnamespaces": 8219,
      "Ġwrites": 8220,
      "confirm": 8221,
      "ĠPoint": 8222,
      "Ġclause": 8223,
      "transfer": 8224,
      "Ġlocally": 8225,
      "kipedia": 8226,
      "000000": 8227,
      "Window": 8228,
      "Ġending": 8229,
      "genes": 8230,
      "ĠImplemented": 8231,
      "ĠPerform": 8232,
      "authorization": 8233,
      "Ġtrajectory": 8234,
      "generic": 8235,
      "ĠTimeout": 8236,
      "alignment": 8237,
      "incipal": 8238,
      "EP": 8239,
      "ttl": 8240,
      "ORY": 8241,
      "Ġlegend": 8242,
      "ĠGeo": 8243,
      "LY": 8244,
      "Ġtaking": 8245,
      "Ġfrequencies": 8246,
      "Ġdx": 8247,
      "Ġunused": 8248,
      "__[": 8249,
      "ĠREST": 8250,
      ":**": 8251,
      "Ġwx": 8252,
      "leting": 8253,
      "symbols": 8254,
      "ĠComm": 8255,
      "expanduser": 8256,
      "Ġbootstrap": 8257,
      "pickle": 8258,
      "94": 8259,
      "ĠPDF": 8260,
      "Ġconfigurations": 8261,
      "::-": 8262,
      "Ġmolecule": 8263,
      "iodic": 8264,
      "matching": 8265,
      "general": 8266,
      "FFFF": 8267,
      "Ġvertical": 8268,
      "Http": 8269,
      "Ġdns": 8270,
      "Ġstudent": 8271,
      "Hub": 8272,
      "gres": 8273,
      "Ġtur": 8274,
      "Ġthus": 8275,
      "mails": 8276,
      "ĠJo": 8277,
      "1234": 8278,
      "Ġreceiver": 8279,
      "Ġstores": 8280,
      "Ġrepeated": 8281,
      "Ġdeployment": 8282,
      "Ġtb": 8283,
      "...,": 8284,
      "ĠOPTION": 8285,
      "inspect": 8286,
      "WT": 8287,
      "mtime": 8288,
      "Ġ{:": 8289,
      "Sto": 8290,
      "Ġack": 8291,
      "Ġrem": 8292,
      "Ġdiscrete": 8293,
      "temperature": 8294,
      "Ġstopped": 8295,
      "difference": 8296,
      "ale": 8297,
      "ĠAccess": 8298,
      "ĠCIM": 8299,
      "Ġ500": 8300,
      "Ġlocator": 8301,
      "/#": 8302,
      "ping": 8303,
      "mega": 8304,
      "ances": 8305,
      "Ġletter": 8306,
      "surface": 8307,
      "Assign": 8308,
      "gence": 8309,
      "xies": 8310,
      "Ġdead": 8311,
      "Ġquick": 8312,
      "backup": 8313,
      "sgi": 8314,
      "Enabled": 8315,
      "++": 8316,
      "fits": 8317,
      "world": 8318,
      "Unit": 8319,
      "Ġpublished": 8320,
      "Ġaccounts": 8321,
      "ĠValidate": 8322,
      "Ġhappens": 8323,
      "Ġnor": 8324,
      "ulary": 8325,
      "ĠPl": 8326,
      "Ġcharset": 8327,
      "TEMP": 8328,
      "ĠMinimum": 8329,
      "Ġcv": 8330,
      "Ġnumerical": 8331,
      "Ġhashes": 8332,
      "Ġplus": 8333,
      "filenames": 8334,
      "ĠSerial": 8335,
      "Ġur": 8336,
      "Ġencrypt": 8337,
      "timezone": 8338,
      "Ġleave": 8339,
      "lengths": 8340,
      "monitor": 8341,
      "Ġhashlib": 8342,
      "ĠUseful": 8343,
      "Random": 8344,
      "WARNING": 8345,
      "finished": 8346,
      "extent": 8347,
      "Ġprob": 8348,
      "Ġuploaded": 8349,
      "Ġcontainers": 8350,
      "Storage": 8351,
      "represent": 8352,
      "room": 8353,
      "integr": 8354,
      "ĠMO": 8355,
      "Ġcanvas": 8356,
      "rune": 8357,
      "offsets": 8358,
      "Ġaligned": 8359,
      "notes": 8360,
      "likelihood": 8361,
      "notebook": 8362,
      "ĠStopIteration": 8363,
      "Ġskipped": 8364,
      "scipy": 8365,
      "initialized": 8366,
      "aw": 8367,
      "Ġdummy": 8368,
      "([(": 8369,
      "Ġexpiration": 8370,
      "separator": 8371,
      "WORD": 8372,
      "interfaces": 8373,
      "overflow": 8374,
      "ĠFIXME": 8375,
      "tor": 8376,
      "assed": 8377,
      "ĠEC": 8378,
      "Ġlaunch": 8379,
      "UND": 8380,
      "lstrip": 8381,
      "tb": 8382,
      "amel": 8383,
      ":],": 8384,
      "Script": 8385,
      "precation": 8386,
      "filtered": 8387,
      "hexdigest": 8388,
      "fq": 8389,
      "Ġ%}": 8390,
      "illing": 8391,
      "haz": 8392,
      "speci": 8393,
      "SUB": 8394,
      ")\",": 8395,
      "><": 8396,
      "Sample": 8397,
      "Wrap": 8398,
      "critical": 8399,
      "Ġgate": 8400,
      "Ġliteral": 8401,
      "ĠNothing": 8402,
      "charge": 8403,
      "Role": 8404,
      "Ġconcaten": 8405,
      "allen": 8406,
      "Ġsubclasses": 8407,
      "Ġalphabet": 8408,
      "Ġrenderer": 8409,
      "ython": 8410,
      "Ġmp": 8411,
      "ĠAfter": 8412,
      "Ġ{!": 8413,
      "Attempt": 8414,
      "54": 8415,
      "Batch": 8416,
      "zh": 8417,
      "ĠWait": 8418,
      "partitions": 8419,
      "Now": 8420,
      "ä¸": 8421,
      "Ġunexpected": 8422,
      "Ġstructures": 8423,
      "=\"\",": 8424,
      "proj": 8425,
      "probab": 8426,
      "usted": 8427,
      "noun": 8428,
      "Assessment": 8429,
      "Ġquantity": 8430,
      "icipant": 8431,
      "Ġaz": 8432,
      "Ġ(_": 8433,
      "Ġthumbnail": 8434,
      "Ġapplying": 8435,
      "(%": 8436,
      "tm": 8437,
      "Ġsuggest": 8438,
      "rogram": 8439,
      "Ġ{%": 8440,
      "Ġexported": 8441,
      "Dep": 8442,
      "Sec": 8443,
      "Ġfoot": 8444,
      "Ġtopology": 8445,
      "ried": 8446,
      "mous": 8447,
      "Current": 8448,
      "uli": 8449,
      "vailable": 8450,
      "ĠNDArray": 8451,
      "TRI": 8452,
      "Ġslow": 8453,
      "Ġdeci": 8454,
      "avg": 8455,
      "Loop": 8456,
      "Ġrequirement": 8457,
      "Ġaggregation": 8458,
      "trial": 8459,
      "atural": 8460,
      "saved": 8461,
      "Ġpayment": 8462,
      "Ġ()": 8463,
      "Ġmechanism": 8464,
      "Ġexecuting": 8465,
      "Ġbuilding": 8466,
      "Ġsimilarity": 8467,
      "Cor": 8468,
      "solver": 8469,
      "Ġcolour": 8470,
      "Ġcontour": 8471,
      "without": 8472,
      "Ġdirname": 8473,
      "ACHE": 8474,
      "sterior": 8475,
      "Ġplaceholder": 8476,
      "windows": 8477,
      "mant": 8478,
      "ply": 8479,
      "('#": 8480,
      "Ġsymlink": 8481,
      "Ġnonce": 8482,
      "Ġdecoder": 8483,
      "Ġconverter": 8484,
      "vectors": 8485,
      "implemented": 8486,
      "predicate": 8487,
      "My": 8488,
      "arrow": 8489,
      "ift": 8490,
      "ITS": 8491,
      "URCE": 8492,
      "Pop": 8493,
      "Report": 8494,
      "DOC": 8495,
      "96": 8496,
      "WOR": 8497,
      "Ġ^": 8498,
      "Ġtensors": 8499,
      "Ġask": 8500,
      "Ġ17": 8501,
      "streams": 8502,
      "Ġinterpreted": 8503,
      "Ġactivation": 8504,
      "ĠNumPy": 8505,
      "aring": 8506,
      "\":\"": 8507,
      "Ġlive": 8508,
      "Ġexecutor": 8509,
      "Ġclosing": 8510,
      "=''):": 8511,
      "UB": 8512,
      "reat": 8513,
      "ffic": 8514,
      "Ġexposure": 8515,
      "mkdir": 8516,
      "ota": 8517,
      "Ġoutcome": 8518,
      "magic": 8519,
      "Ġaggregate": 8520,
      "hdr": 8521,
      "nasa": 8522,
      "Ġreserved": 8523,
      "quee": 8524,
      "Expected": 8525,
      "udit": 8526,
      "Ġsorting": 8527,
      "Deletes": 8528,
      "tests": 8529,
      "Unsupported": 8530,
      "pag": 8531,
      "Ġdevelo": 8532,
      "Ġapps": 8533,
      "Ġinteractive": 8534,
      "Ġoptimization": 8535,
      "longitude": 8536,
      ">\"": 8537,
      "concatenate": 8538,
      "contrib": 8539,
      "Ġperson": 8540,
      "ĠShow": 8541,
      "revision": 8542,
      "Ġfun": 8543,
      "Ġcredential": 8544,
      "Ġindexing": 8545,
      "rmware": 8546,
      "DoesNotExist": 8547,
      "Hist": 8548,
      "Ġdigit": 8549,
      "ĠFlask": 8550,
      "ĠMapping": 8551,
      "Replace": 8552,
      "Ġimplicit": 8553,
      "DELETE": 8554,
      "SSL": 8555,
      "Mon": 8556,
      "Ġfits": 8557,
      "Ġretain": 8558,
      "Ġvcf": 8559,
      "ĠHDF": 8560,
      "perties": 8561,
      "ĠKE": 8562,
      "Ġauthenticate": 8563,
      "Ġtyping": 8564,
      "kg": 8565,
      "station": 8566,
      "Ġann": 8567,
      "Ġ...,": 8568,
      "Plugin": 8569,
      "Ġascending": 8570,
      "Font": 8571,
      "KEN": 8572,
      "Var": 8573,
      "Ġnotify": 8574,
      "ĠPa": 8575,
      "ĠWHERE": 8576,
      "variants": 8577,
      "Entity": 8578,
      "ĠHttpResponse": 8579,
      "atively": 8580,
      "Ġins": 8581,
      "asc": 8582,
      "ĠPID": 8583,
      "buff": 8584,
      "Ġsplits": 8585,
      "keh": 8586,
      "Ġimportant": 8587,
      "Ġtransforms": 8588,
      "normalized": 8589,
      "PREFIX": 8590,
      "GU": 8591,
      "sampling": 8592,
      "ym": 8593,
      "Ġquadratic": 8594,
      "Settings": 8595,
      "BASE": 8596,
      "Ġatt": 8597,
      "ĠâĶ": 8598,
      "Ġ'$": 8599,
      "ĠSO": 8600,
      "cade": 8601,
      "rv": 8602,
      "illa": 8603,
      "ĠBad": 8604,
      "nor": 8605,
      "Ġwater": 8606,
      "lax": 8607,
      "levation": 8608,
      "Ġdetector": 8609,
      "'{": 8610,
      "gw": 8611,
      "Ġthird": 8612,
      ".:": 8613,
      "pillar": 8614,
      "Ġupgrade": 8615,
      "Ġstripped": 8616,
      "Ġdc": 8617,
      "Ġshutdown": 8618,
      "Ġflush": 8619,
      "character": 8620,
      "ĠDocker": 8621,
      "Ġoverridden": 8622,
      "Empty": 8623,
      "PN": 8624,
      "igs": 8625,
      "jpl": 8626,
      "mg": 8627,
      "sla": 8628,
      "Ġfrozen": 8629,
      "Ġna": 8630,
      "working": 8631,
      "Tool": 8632,
      "Ġdiagonal": 8633,
      "decorator": 8634,
      "Section": 8635,
      "azard": 8636,
      "vanced": 8637,
      "Ġgl": 8638,
      "Ġgiving": 8639,
      "ĠNet": 8640,
      "curr": 8641,
      "udy": 8642,
      "Ġcleaned": 8643,
      "Ġsubsequent": 8644,
      "CLI": 8645,
      "PORT": 8646,
      "Ġwind": 8647,
      "consumer": 8648,
      "Ġrunner": 8649,
      "ĠSelect": 8650,
      "contact": 8651,
      "Ġencryption": 8652,
      "species": 8653,
      "Ġprojects": 8654,
      "kill": 8655,
      "nick": 8656,
      "Ġmarkers": 8657,
      "mallest": 8658,
      "2010": 8659,
      "Ġfaces": 8660,
      "assignment": 8661,
      "Ġinherit": 8662,
      "Ġconsum": 8663,
      "phan": 8664,
      "ĠCommandExecutionError": 8665,
      "Ġfin": 8666,
      "Ġec": 8667,
      "ĠRemoves": 8668,
      "Ġsystems": 8669,
      "Ġcurrency": 8670,
      "rem": 8671,
      "Ġaws": 8672,
      "cay": 8673,
      "Setup": 8674,
      "/',": 8675,
      "Ġrb": 8676,
      "submission": 8677,
      "Ġmock": 8678,
      "hours": 8679,
      ")**": 8680,
      "500": 8681,
      "Bin": 8682,
      "dns": 8683,
      "loor": 8684,
      "ament": 8685,
      "defs": 8686,
      "cspice": 8687,
      "directories": 8688,
      "secure": 8689,
      "mig": 8690,
      "parallel": 8691,
      "ĠRandom": 8692,
      "setLevel": 8693,
      "pared": 8694,
      "Ġlex": 8695,
      "checksum": 8696,
      "Ġcontinuous": 8697,
      "Ġpopulate": 8698,
      "Builds": 8699,
      "Root": 8700,
      "[_": 8701,
      "dings": 8702,
      "ĠEX": 8703,
      "Ġfunctionality": 8704,
      "Ġcompared": 8705,
      "registered": 8706,
      "Ġmanaged": 8707,
      "execution": 8708,
      "9999": 8709,
      "Ġipv": 8710,
      "]'": 8711,
      "tip": 8712,
      "sensus": 8713,
      "leaf": 8714,
      "Ġconvenience": 8715,
      "ĠShape": 8716,
      "ĠBack": 8717,
      "Ġflask": 8718,
      "digits": 8719,
      "%%": 8720,
      "Clean": 8721,
      "SB": 8722,
      "trip": 8723,
      "}\")": 8724,
      "Ġinvert": 8725,
      "ĠTCP": 8726,
      "updates": 8727,
      "exact": 8728,
      "circ": 8729,
      "ĠDep": 8730,
      "START": 8731,
      "Ġdatatype": 8732,
      "factors": 8733,
      "ARE": 8734,
      "rapping": 8735,
      "Ġhyp": 8736,
      "))))": 8737,
      "domains": 8738,
      "binding": 8739,
      "ntaxError": 8740,
      "ĠHelper": 8741,
      "LATE": 8742,
      "Ġste": 8743,
      "Ġ``.": 8744,
      "allback": 8745,
      "Ġ</": 8746,
      "mapper": 8747,
      "128": 8748,
      "yes": 8749,
      "{'": 8750,
      "hello": 8751,
      "Ġfake": 8752,
      "ĠSec": 8753,
      "prod": 8754,
      "Ġaren": 8755,
      "shapes": 8756,
      "retcode": 8757,
      "COMP": 8758,
      "inux": 8759,
      "getcwd": 8760,
      "ĠET": 8761,
      "moving": 8762,
      "Keep": 8763,
      "Ġ40": 8764,
      "Ġadapt": 8765,
      "Ġremain": 8766,
      "Ġelect": 8767,
      "unused": 8768,
      "Ġhits": 8769,
      "ĠBig": 8770,
      "...)": 8771,
      "Ġconstructed": 8772,
      "GS": 8773,
      "tn": 8774,
      "Ġ`.": 8775,
      "ĠModule": 8776,
      "Ġversionchanged": 8777,
      "trim": 8778,
      "cuit": 8779,
      "onymous": 8780,
      "Ġdaily": 8781,
      "Ġaccuracy": 8782,
      "Ġpasses": 8783,
      "ĠCopy": 8784,
      "ĠProject": 8785,
      "nowledge": 8786,
      "UNT": 8787,
      "border": 8788,
      "Ġinc": 8789,
      "Ġtodo": 8790,
      "ulator": 8791,
      "Ġ\"__": 8792,
      "))[": 8793,
      "ĠPort": 8794,
      "ĠGaussian": 8795,
      "urity": 8796,
      "ĠMI": 8797,
      "legend": 8798,
      "42": 8799,
      "EV": 8800,
      "Flag": 8801,
      "rn": 8802,
      "ĠDimension": 8803,
      "mtree": 8804,
      "Ġepsilon": 8805,
      "MB": 8806,
      "wind": 8807,
      "ulus": 8808,
      "should": 8809,
      "oral": 8810,
      "arc": 8811,
      "ĠCalled": 8812,
      "ashboard": 8813,
      "ĠChannel": 8814,
      "develo": 8815,
      "ctypes": 8816,
      "ĠDNS": 8817,
      "ĠEl": 8818,
      "sentence": 8819,
      "ĠReplace": 8820,
      "Ġmouse": 8821,
      "HTTPError": 8822,
      "DateTime": 8823,
      "ĠAccount": 8824,
      "Ġttl": 8825,
      "iline": 8826,
      "mplitude": 8827,
      "Ġperforms": 8828,
      ":\",": 8829,
      "ares": 8830,
      "tw": 8831,
      "learning": 8832,
      "Ġinferred": 8833,
      "Ġincorrect": 8834,
      "agg": 8835,
      "caller": 8836,
      "going": 8837,
      "Ġ'-'": 8838,
      "ĠApply": 8839,
      "tzinfo": 8840,
      "ĠOverride": 8841,
      "hit": 8842,
      "datastore": 8843,
      "Ġscripts": 8844,
      "Definition": 8845,
      "Ġsubstitution": 8846,
      "Shape": 8847,
      "references": 8848,
      "Ġprom": 8849,
      "Ġbranches": 8850,
      "Ġelapsed": 8851,
      "Ġcorrection": 8852,
      "Ġcorpus": 8853,
      "Ġ404": 8854,
      "Ġapproximate": 8855,
      "Sort": 8856,
      "sensor": 8857,
      "ĠâĢ": 8858,
      "gate": 8859,
      "Ġpat": 8860,
      "Ġnice": 8861,
      "produ": 8862,
      "__:": 8863,
      "ĠBEL": 8864,
      "Ġ36": 8865,
      "LIST": 8866,
      "Prefix": 8867,
      "neighbors": 8868,
      "ĠDescription": 8869,
      "upt": 8870,
      "ĠLook": 8871,
      "Ġtriggered": 8872,
      "Ġpurposes": 8873,
      "Ġbond": 8874,
      "problem": 8875,
      "Ġmoving": 8876,
      "Ġinternally": 8877,
      "Finds": 8878,
      "Ġslices": 8879,
      "Verify": 8880,
      "Ġtheme": 8881,
      "mainder": 8882,
      "ouble": 8883,
      "Ġ400": 8884,
      "LIB": 8885,
      "Ġreports": 8886,
      "/<": 8887,
      ":\")": 8888,
      "Ġcpu": 8889,
      "Ġforms": 8890,
      "definitions": 8891,
      "objs": 8892,
      "Ġunders": 8893,
      "Ġphysical": 8894,
      "Iterate": 8895,
      "Ġeffective": 8896,
      "Ġresidual": 8897,
      "ĠRedis": 8898,
      "batches": 8899,
      "density": 8900,
      "ook": 8901,
      "remaining": 8902,
      "Ġ'\"": 8903,
      "Ġvpc": 8904,
      "ĠItem": 8905,
      "ĠRFC": 8906,
      "endpoints": 8907,
      "Ġrs": 8908,
      "compare": 8909,
      "ATOR": 8910,
      "Ġthreading": 8911,
      "Ġacceptable": 8912,
      "Ġcapacity": 8913,
      "velope": 8914,
      "Ġdynam": 8915,
      "Ġmilliseconds": 8916,
      "Ġgzip": 8917,
      "ailability": 8918,
      "subscribe": 8919,
      "Ġpolynomial": 8920,
      "Ġnl": 8921,
      "Ġmi": 8922,
      "keyid": 8923,
      "Ġkill": 8924,
      "Ġgreen": 8925,
      "secut": 8926,
      "Ġsci": 8927,
      "ĠInclude": 8928,
      "Component": 8929,
      "HTML": 8930,
      "Ġdescribe": 8931,
      "Ġsanit": 8932,
      "utit": 8933,
      "Ġorientation": 8934,
      "Ġ23": 8935,
      "ĠExt": 8936,
      "maybe": 8937,
      "ĠWhich": 8938,
      "Ġ/=": 8939,
      "Ġscenario": 8940,
      "ĠChange": 8941,
      "Authorization": 8942,
      "VAR": 8943,
      "Writer": 8944,
      "Ġtorch": 8945,
      "pex": 8946,
      "readable": 8947,
      "Ġsampled": 8948,
      "Upload": 8949,
      "Ġbecomes": 8950,
      "Ob": 8951,
      "routing": 8952,
      "tolist": 8953,
      "certificate": 8954,
      "Ġexpires": 8955,
      "randint": 8956,
      "':'": 8957,
      "pat": 8958,
      "Ġsaving": 8959,
      "umor": 8960,
      "acc": 8961,
      "Ġartist": 8962,
      "globals": 8963,
      "ai": 8964,
      "stri": 8965,
      "Ġcn": 8966,
      "ilation": 8967,
      "Ġgran": 8968,
      "``).": 8969,
      "Project": 8970,
      "overwrite": 8971,
      "Att": 8972,
      "\\_": 8973,
      "fm": 8974,
      "atever": 8975,
      "('')": 8976,
      "Ġkwarg": 8977,
      "Ġsense": 8978,
      "Ġlicense": 8979,
      "atar": 8980,
      "ffff": 8981,
      "ĠĠĠĠĠĠĠĠĠĠĠĠĠĠĠĠĠĠĠĠĠĠĠĠĠĠĠĠĠĠĠĠĠĠĠĠĠĠĠĠĠĠĠĠĠĠĠĠĠĠĠĠĠ": 8982,
      "tenant": 8983,
      "Ġ2015": 8984,
      ":',": 8985,
      "oser": 8986,
      "tur": 8987,
      "repos": 8988,
      "Ġlattice": 8989,
      "Ġprofiles": 8990,
      "ĠDownload": 8991,
      "ĠĠĠĠĠĠĠĠĠĠĠĠĠĠĠĠĠĠĠĠĠĠĠĠĠĠĠĠĠĠĠĠĠĠĠĠĠĠĠĠĠĠĠĠĠĠĠĠĠĠĠĠ": 8992,
      "Reset": 8993,
      "lapse": 8994,
      "Ġoptimizer": 8995,
      "Ġdrawn": 8996,
      "Ġsheet": 8997,
      "Ġboundaries": 8998,
      "_):": 8999,
      "mongo": 9000,
      "ĠAction": 9001,
      "Ġlittle": 9002,
      "(\"'": 9003,
      "ĠUpdates": 9004,
      "ArgumentParser": 9005,
      "ĠGraphQL": 9006,
      "*\\": 9007,
      "PG": 9008,
      "Ġls": 9009,
      ")')": 9010,
      "kv": 9011,
      "Ġsink": 9012,
      "ĠSample": 9013,
      "(\",": 9014,
      "Ġcompiler": 9015,
      "Ġlazy": 9016,
      "Ġdestroy": 9017,
      "smoot": 9018,
      "ann": 9019,
      "hain": 9020,
      "actual": 9021,
      "Ġimpro": 9022,
      "Ġperiods": 9023,
      "afka": 9024,
      "Ġvelocity": 9025,
      "atalog": 9026,
      "Ġinvoke": 9027,
      "ĠSD": 9028,
      "Ġsessions": 9029,
      "Ġrecipe": 9030,
      "Space": 9031,
      "ĠPos": 9032,
      "Ġmaterial": 9033,
      "terminal": 9034,
      "Ġscheduled": 9035,
      "Bar": 9036,
      "vpc": 9037,
      "orders": 9038,
      "ĠOK": 9039,
      "tains": 9040,
      "Ġenter": 9041,
      "ROOT": 9042,
      "void": 9043,
      "Ġtransactions": 9044,
      "Ġcollected": 9045,
      "CATION": 9046,
      "Factor": 9047,
      "aux": 9048,
      "decoder": 9049,
      "Ġ256": 9050,
      "Recurs": 9051,
      "Ġbehaviour": 9052,
      "Ġâİ": 9053,
      "hint": 9054,
      "Ġtau": 9055,
      "rift": 9056,
      "Ġintersect": 9057,
      "Analysis": 9058,
      "Ġwebsocket": 9059,
      "Ġflattened": 9060,
      "spection": 9061,
      "Ġnetworks": 9062,
      "Ġ\"\".": 9063,
      "Ġglobals": 9064,
      "Move": 9065,
      "Ġorgan": 9066,
      "FLAGS": 9067,
      "recursive": 9068,
      "_=": 9069,
      "native": 9070,
      "alo": 9071,
      "isation": 9072,
      "Ġparagraph": 9073,
      "pie": 9074,
      "Ġminute": 9075,
      "Identifier": 9076,
      "127": 9077,
      "Ġmixed": 9078,
      "repeat": 9079,
      "cus": 9080,
      "jar": 9081,
      "reload": 9082,
      "resolution": 9083,
      "REC": 9084,
      "Files": 9085,
      "Ġ:,": 9086,
      "Ġground": 9087,
      "Ġhazard": 9088,
      "Ġunchanged": 9089,
      "Protocol": 9090,
      "Med": 9091,
      "lored": 9092,
      "Ġgateway": 9093,
      "Ġlanguages": 9094,
      "prot": 9095,
      "ĠHE": 9096,
      "started": 9097,
      "Ġimports": 9098,
      "Ġverification": 9099,
      "between": 9100,
      "Ġcs": 9101,
      "Ġct": 9102,
      "limin": 9103,
      "Ġresol": 9104,
      "Alchemy": 9105,
      "BB": 9106,
      "_[": 9107,
      "zon": 9108,
      "Ġarc": 9109,
      "completion": 9110,
      "Export": 9111,
      "Segment": 9112,
      "Ġradians": 9113,
      "Ġrespective": 9114,
      "ĠHere": 9115,
      "Axes": 9116,
      "CR": 9117,
      "coin": 9118,
      "Ġtopics": 9119,
      "Grade": 9120,
      "Ġcampaign": 9121,
      "Ġray": 9122,
      "Ġverb": 9123,
      "SOURCE": 9124,
      "Ġbam": 9125,
      "Ġeq": 9126,
      "Ġmargin": 9127,
      "istant": 9128,
      "ĠMon": 9129,
      "Ġdescend": 9130,
      "CACHE": 9131,
      "QA": 9132,
      "pretty": 9133,
      "Ġhealth": 9134,
      "ĠConnect": 9135,
      "special": 9136,
      "=[],": 9137,
      "cipher": 9138,
      "Ġhighlight": 9139,
      "(\"\"": 9140,
      "Ġiso": 9141,
      "gradient": 9142,
      "workspace": 9143,
      "^\\": 9144,
      "Ġsky": 9145,
      "covered": 9146,
      "Ġcorner": 9147,
      "123": 9148,
      "ĠApplication": 9149,
      "mf": 9150,
      "stable": 9151,
      "Ġevidence": 9152,
      "Ġlease": 9153,
      "Prepare": 9154,
      "ĠValidationError": 9155,
      "Ġnotifications": 9156,
      "Ġlegacy": 9157,
      "CD": 9158,
      "ech": 9159,
      "square": 9160,
      "Ġviews": 9161,
      "fragment": 9162,
      "activate": 9163,
      "Ġsmooth": 9164,
      "tun": 9165,
      "Ġstar": 9166,
      "lementation": 9167,
      "Style": 9168,
      "Ġprefixes": 9169,
      "sses": 9170,
      "alg": 9171,
      "TT": 9172,
      "irect": 9173,
      "pies": 9174,
      "Ġoverall": 9175,
      "Ġcenters": 9176,
      "ĠThat": 9177,
      "itect": 9178,
      "Ġmutation": 9179,
      "inspace": 9180,
      "blank": 9181,
      "Ġwidgets": 9182,
      "={},": 9183,
      "Ġmaintain": 9184,
      "pline": 9185,
      "feat": 9186,
      "shutdown": 9187,
      "URN": 9188,
      "$',": 9189,
      ".+": 9190,
      "NUM": 9191,
      "whe": 9192,
      "ConnectionError": 9193,
      "Ġtypically": 9194,
      "macro": 9195,
      "Accept": 9196,
      "FOR": 9197,
      "Ġ'+": 9198,
      "Ġrr": 9199,
      "ĠJava": 9200,
      "marks": 9201,
      "Ġhooks": 9202,
      "Ġfactors": 9203,
      "Ġhardware": 9204,
      "Offset": 9205,
      "rees": 9206,
      "Ġreject": 9207,
      "numer": 9208,
      "bases": 9209,
      "ĠInternal": 9210,
      "Ġcalibration": 9211,
      "âĶĢâĶĢâĶĢâĶĢ": 9212,
      "received": 9213,
      "Package": 9214,
      "')))": 9215,
      "Ġbc": 9216,
      "ĠView": 9217,
      "minor": 9218,
      "groupby": 9219,
      "Ġattention": 9220,
      "Ġtreat": 9221,
      "hub": 9222,
      "around": 9223,
      "ategory": 9224,
      "fobj": 9225,
      "calar": 9226,
      "999": 9227,
      "ParseError": 9228,
      "Ġtranslated": 9229,
      "eper": 9230,
      "Ġclassifier": 9231,
      "Ġsigning": 9232,
      "median": 9233,
      "Ġsecondary": 9234,
      "large": 9235,
      "rsplit": 9236,
      "(\"_": 9237,
      "ariant": 9238,
      "ĠHost": 9239,
      "matched": 9240,
      "CHAR": 9241,
      "Ġappears": 9242,
      "Pi": 9243,
      "front": 9244,
      "ĠMongo": 9245,
      "ayload": 9246,
      "Ġoperators": 9247,
      "ĠCount": 9248,
      "ĠWhere": 9249,
      "initialize": 9250,
      "gradebook": 9251,
      "Ġintegration": 9252,
      "Ġplotted": 9253,
      "Ġpast": 9254,
      "ANCE": 9255,
      "Ġobserver": 9256,
      "bon": 9257,
      "middle": 9258,
      "listener": 9259,
      "Ġiteritems": 9260,
      "cleot": 9261,
      "SubElement": 9262,
      "Ġ([": 9263,
      "Ġhint": 9264,
      "oute": 9265,
      "Ġ...]": 9266,
      "interpol": 9267,
      "Ġshapes": 9268,
      "Ġchromosome": 9269,
      "Main": 9270,
      "Scan": 9271,
      "ĠRow": 9272,
      "ĠSplit": 9273,
      "under": 9274,
      "never": 9275,
      "Ġoverwritten": 9276,
      "herical": 9277,
      "Ġlikelihood": 9278,
      "Ġrandomly": 9279,
      "cedence": 9280,
      "Iterable": 9281,
      "Ġ\"{}\"": 9282,
      "Ġamplitude": 9283,
      "clients": 9284,
      "Ġloads": 9285,
      "hashes": 9286,
      "rfc": 9287,
      "ĠMatch": 9288,
      "ĠSection": 9289,
      "scriptors": 9290,
      "itories": 9291,
      "hierarchy": 9292,
      "secutive": 9293,
      "Ġcube": 9294,
      "resolved": 9295,
      "ĠPY": 9296,
      "ĠNAME": 9297,
      "ĠLink": 9298,
      "Ġleader": 9299,
      "Ġ{}:": 9300,
      "ATED": 9301,
      "describe": 9302,
      "Ġscaled": 9303,
      "}',": 9304,
      "ĠBut": 9305,
      "player": 9306,
      "trunc": 9307,
      "upy": 9308,
      "Look": 9309,
      "JLink": 9310,
      "OM": 9311,
      "how": 9312,
      "encryption": 9313,
      "anza": 9314,
      "ĠSkip": 9315,
      "artbeat": 9316,
      "timeseries": 9317,
      "daemon": 9318,
      "Ġoccurrence": 9319,
      "ball": 9320,
      "Ġoauth": 9321,
      "resolver": 9322,
      "Ġ00": 9323,
      "Ġxarray": 9324,
      "STATUS": 9325,
      "queeze": 9326,
      "Total": 9327,
      "Ġpp": 9328,
      "Ġinf": 9329,
      "kwds": 9330,
      "ĠĠĠĠĠĠĠĠĠĠĠĠĠĠĠĠĠĠĠĠĠĠĠĠĠĠĠĠĠĠĠĠĠĠĠĠĠĠĠĠĠĠĠĠĠĠĠĠĠĠĠĠĠĠĠ": 9331,
      "Ġhowever": 9332,
      "Ġshortcut": 9333,
      "ygons": 9334,
      "ĠGenerates": 9335,
      "but": 9336,
      "don": 9337,
      "vfs": 9338,
[...]
